{
 "specials": [
  "<pad>",
  "<bos>",
  "<eos>",
  "<user>",
  "<assistant>",
  "<mem>",
  "<unk>"
 ],
 "lowercase": false,
 "alphabet": [
  " ",
  "!",
  "\"",
  "'",
  "(",
  ")",
  ",",
  "-",
  ".",
  "0",
  "1",
  "2",
  "3",
  "4",
  "5",
  "6",
  "7",
  "8",
  "9",
  ":",
  ";",
  "?",
  "A",
  "B",
  "C",
  "D",
  "E",
  "F",
  "G",
  "H",
  "I",
  "J",
  "K",
  "L",
  "M",
  "N",
  "O",
  "P",
  "Q",
  "R",
  "S",
  "T",
  "U",
  "V",
  "W",
  "X",
  "Y",
  "Z",
  "_",
  "a",
  "b",
  "c",
  "d",
  "e",
  "f",
  "g",
  "h",
  "i",
  "j",
  "k",
  "l",
  "m",
  "n",
  "o",
  "p",
  "q",
  "r",
  "s",
  "t",
  "u",
  "v",
  "w",
  "x",
  "y",
  "z",
  "—"
 ],
 "merges": [
  [
   " ",
   "t"
  ],
  [
   " ",
   "w"
  ],
  [
   " ",
   "a"
  ],
  [
   "o",
   "u"
  ],
  [
   "i",
   "n"
  ],
  [
   "a",
   "t"
  ],
  [
   " ",
   "i"
  ],
  [
   "h",
   "at"
  ],
  [
   "h",
   "e"
  ],
  [
   "y",
   "ou"
  ],
  [
   "o",
   "r"
  ],
  [
   "in",
   "g"
  ],
  [
   " ",
   "you"
  ],
  [
   "l",
   "l"
  ],
  [
   " ",
   "s"
  ],
  [
   " ",
   "b"
  ],
  [
   " ",
   "g"
  ],
  [
   "k",
   "e"
  ],
  [
   "r",
   "e"
  ],
  [
   "o",
   "n"
  ],
  [
   " i",
   "t"
  ],
  [
   " ",
   "d"
  ],
  [
   " ",
   "m"
  ],
  [
   "e",
   "n"
  ],
  [
   " ",
   "c"
  ],
  [
   " ",
   "f"
  ],
  [
   " t",
   "o"
  ],
  [
   " ",
   "I"
  ],
  [
   "o",
   "w"
  ],
  [
   " ",
   "h"
  ],
  [
   "e",
   "r"
  ],
  [
   "o",
   "o"
  ],
  [
   "a",
   "n"
  ],
  [
   " w",
   "hat"
  ],
  [
   " t",
   "he"
  ],
  [
   "a",
   "y"
  ],
  [
   "o",
   "t"
  ],
  [
   "i",
   "t"
  ],
  [
   " d",
   "o"
  ],
  [
   " ",
   "p"
  ],
  [
   " i",
   "s"
  ],
  [
   " a",
   "n"
  ],
  [
   " ",
   "l"
  ],
  [
   " b",
   "e"
  ],
  [
   "e",
   "s"
  ],
  [
   "a",
   "r"
  ],
  [
   " ",
   "n"
  ],
  [
   "ou",
   "t"
  ],
  [
   "c",
   "ke"
  ],
  [
   "o",
   "cke"
  ],
  [
   "ocke",
   "t"
  ],
  [
   "ocket",
   "L"
  ],
  [
   "ocketL",
   "M"
  ],
  [
   "P",
   "ocketLM"
  ],
  [
   "oo",
   "d"
  ],
  [
   " ",
   "r"
  ],
  [
   "a",
   "ll"
  ],
  [
   " ",
   "PocketLM"
  ],
  [
   "a",
   "v"
  ],
  [
   " m",
   "e"
  ],
  [
   " ",
   "on"
  ],
  [
   "m",
   "e"
  ],
  [
   "i",
   "c"
  ],
  [
   "g",
   "h"
  ],
  [
   "w",
   "hat"
  ],
  [
   "a",
   "s"
  ],
  [
   "e",
   "d"
  ],
  [
   " l",
   "i"
  ],
  [
   "b",
   "out"
  ],
  [
   "i",
   "d"
  ],
  [
   " w",
   "e"
  ],
  [
   " h",
   "ow"
  ],
  [
   "l",
   "d"
  ],
  [
   " t",
   "hat"
  ],
  [
   " a",
   "bout"
  ],
  [
   "en",
   "t"
  ],
  [
   " t",
   "h"
  ],
  [
   "an",
   "t"
  ],
  [
   "t",
   "h"
  ],
  [
   "it",
   "e"
  ],
  [
   " g",
   "ood"
  ],
  [
   " ",
   "—"
  ],
  [
   " an",
   "d"
  ],
  [
   " ",
   "o"
  ],
  [
   "t",
   "t"
  ],
  [
   "ic",
   "e"
  ],
  [
   " on",
   "e"
  ],
  [
   " w",
   "ant"
  ],
  [
   "a",
   "d"
  ],
  [
   " li",
   "ke"
  ],
  [
   "a",
   "me"
  ],
  [
   "l",
   "e"
  ],
  [
   " g",
   "o"
  ],
  [
   "i",
   "gh"
  ],
  [
   "u",
   "p"
  ],
  [
   " o",
   "f"
  ],
  [
   " w",
   "as"
  ],
  [
   " you",
   "r"
  ],
  [
   "or",
   "ite"
  ],
  [
   "av",
   "orite"
  ],
  [
   "ou",
   "ld"
  ],
  [
   " f",
   "avorite"
  ],
  [
   "igh",
   "t"
  ],
  [
   " a",
   "s"
  ],
  [
   "v",
   "er"
  ],
  [
   "he",
   "y"
  ],
  [
   "v",
   "e"
  ],
  [
   "t",
   "i"
  ],
  [
   " c",
   "o"
  ],
  [
   "a",
   "l"
  ],
  [
   "u",
   "n"
  ],
  [
   "a",
   "c"
  ],
  [
   " ",
   "k"
  ],
  [
   " ",
   "up"
  ],
  [
   "on",
   "g"
  ],
  [
   " a",
   "re"
  ],
  [
   "h",
   "i"
  ],
  [
   " w",
   "ent"
  ],
  [
   " ",
   "in"
  ],
  [
   "in",
   "e"
  ],
  [
   " ",
   "T"
  ],
  [
   "a",
   "in"
  ],
  [
   "he",
   "re"
  ],
  [
   "n",
   "ice"
  ],
  [
   "in",
   "d"
  ],
  [
   "th",
   "ing"
  ],
  [
   "d",
   "ay"
  ],
  [
   "y",
   "e"
  ],
  [
   "l",
   "y"
  ],
  [
   "s",
   "e"
  ],
  [
   " an",
   "y"
  ],
  [
   " be",
   "en"
  ],
  [
   " ",
   "e"
  ],
  [
   " h",
   "av"
  ],
  [
   " s",
   "o"
  ],
  [
   "u",
   "es"
  ],
  [
   "ke",
   "d"
  ],
  [
   "all",
   "y"
  ],
  [
   " n",
   "ot"
  ],
  [
   " ",
   "or"
  ],
  [
   " t",
   "e"
  ],
  [
   "ver",
   "y"
  ],
  [
   "it",
   "h"
  ],
  [
   " b",
   "u"
  ],
  [
   "n",
   "ow"
  ],
  [
   "he",
   "r"
  ],
  [
   " k",
   "now"
  ],
  [
   "r",
   "o"
  ],
  [
   " w",
   "or"
  ],
  [
   "a",
   "id"
  ],
  [
   " s",
   "aid"
  ],
  [
   "l",
   "or"
  ],
  [
   " do",
   "ing"
  ],
  [
   "m",
   "all"
  ],
  [
   "oo",
   "l"
  ],
  [
   "t",
   "hat"
  ],
  [
   "m",
   "y"
  ],
  [
   "a",
   "p"
  ],
  [
   "a",
   "ke"
  ],
  [
   " s",
   "mall"
  ],
  [
   " hav",
   "e"
  ],
  [
   "in",
   "k"
  ],
  [
   " ",
   "S"
  ],
  [
   " p",
   "l"
  ],
  [
   "tt",
   "er"
  ],
  [
   " be",
   "tter"
  ],
  [
   "a",
   "h"
  ],
  [
   " g",
   "re"
  ],
  [
   "ic",
   "k"
  ],
  [
   "or",
   "e"
  ],
  [
   " m",
   "ore"
  ],
  [
   " w",
   "ith"
  ],
  [
   "n",
   "ot"
  ],
  [
   "i",
   "s"
  ],
  [
   " I",
   "t"
  ],
  [
   " th",
   "ink"
  ],
  [
   " f",
   "e"
  ],
  [
   " te",
   "ll"
  ],
  [
   " ",
   "out"
  ],
  [
   " n",
   "e"
  ],
  [
   " ",
   "q"
  ],
  [
   " m",
   "y"
  ],
  [
   "d",
   "o"
  ],
  [
   " g",
   "e"
  ],
  [
   "a",
   "m"
  ],
  [
   "d",
   "s"
  ],
  [
   "n",
   "o"
  ],
  [
   "c",
   "t"
  ],
  [
   "or",
   "r"
  ],
  [
   " like",
   "s"
  ],
  [
   " r",
   "ight"
  ],
  [
   "t",
   "o"
  ],
  [
   "i",
   "ll"
  ],
  [
   " w",
   "ill"
  ],
  [
   "a",
   "a"
  ],
  [
   " ",
   "here"
  ],
  [
   " f",
   "or"
  ],
  [
   "h",
   "y"
  ],
  [
   " as",
   "ked"
  ],
  [
   " s",
   "p"
  ],
  [
   " any",
   "thing"
  ],
  [
   "ou",
   "n"
  ],
  [
   " as",
   "k"
  ],
  [
   " we",
   "ll"
  ],
  [
   "at",
   "her"
  ],
  [
   "i",
   "r"
  ],
  [
   " pl",
   "ay"
  ],
  [
   "ti",
   "on"
  ],
  [
   " a",
   "ll"
  ],
  [
   "h",
   "o"
  ],
  [
   " ",
   "re"
  ],
  [
   "u",
   "r"
  ],
  [
   " d",
   "ay"
  ],
  [
   "ou",
   "gh"
  ],
  [
   "al",
   "k"
  ],
  [
   " t",
   "alk"
  ],
  [
   " c",
   "ould"
  ],
  [
   " T",
   "he"
  ],
  [
   "m",
   "ine"
  ],
  [
   " bu",
   "t"
  ],
  [
   " ",
   "ye"
  ],
  [
   "ct",
   "u"
  ],
  [
   " a",
   "ctu"
  ],
  [
   " in",
   "to"
  ],
  [
   "er",
   "s"
  ],
  [
   "k",
   "ing"
  ],
  [
   "c",
   "ool"
  ],
  [
   "l",
   "p"
  ],
  [
   "ar",
   "d"
  ],
  [
   "ake",
   "s"
  ],
  [
   "k",
   "s"
  ],
  [
   "he",
   "lp"
  ],
  [
   "n",
   "ame"
  ],
  [
   "h",
   "ow"
  ],
  [
   " n",
   "ame"
  ],
  [
   " p",
   "ar"
  ],
  [
   " gre",
   "at"
  ],
  [
   "d",
   "e"
  ],
  [
   "x",
   "t"
  ],
  [
   " ne",
   "xt"
  ],
  [
   " we",
   "e"
  ],
  [
   "b",
   "ot"
  ],
  [
   " c",
   "hat"
  ],
  [
   "g",
   "ot"
  ],
  [
   "c",
   "o"
  ],
  [
   "o",
   "s"
  ],
  [
   " ",
   "very"
  ],
  [
   " g",
   "ot"
  ],
  [
   "a",
   "re"
  ],
  [
   "b",
   "b"
  ],
  [
   "re",
   "ally"
  ],
  [
   " your",
   "s"
  ],
  [
   "ard",
   "en"
  ],
  [
   "p",
   "en"
  ],
  [
   "ap",
   "pen"
  ],
  [
   " h",
   "appen"
  ],
  [
   " l",
   "ong"
  ],
  [
   "j",
   "o"
  ],
  [
   "r",
   "a"
  ],
  [
   "co",
   "lor"
  ],
  [
   " r",
   "un"
  ],
  [
   " f",
   "un"
  ],
  [
   " to",
   "day"
  ],
  [
   " s",
   "t"
  ],
  [
   "t",
   "ly"
  ],
  [
   "i",
   "m"
  ],
  [
   "tt",
   "ing"
  ],
  [
   " ge",
   "tting"
  ],
  [
   "an",
   "y"
  ],
  [
   " g",
   "arden"
  ],
  [
   "W",
   "e"
  ],
  [
   "at",
   "er"
  ],
  [
   " the",
   "re"
  ],
  [
   " s",
   "h"
  ],
  [
   " h",
   "o"
  ],
  [
   "c",
   "h"
  ],
  [
   "a",
   "ir"
  ],
  [
   " chat",
   "bot"
  ],
  [
   "s",
   "o"
  ],
  [
   " b",
   "or"
  ],
  [
   "or",
   "t"
  ],
  [
   " sh",
   "ort"
  ],
  [
   "ues",
   "s"
  ],
  [
   "n",
   "ing"
  ],
  [
   "s",
   "oun"
  ],
  [
   "en",
   "se"
  ],
  [
   " c",
   "all"
  ],
  [
   "o",
   "h"
  ],
  [
   "oo",
   "h"
  ],
  [
   "g",
   "ain"
  ],
  [
   " a",
   "gain"
  ],
  [
   "c",
   "e"
  ],
  [
   "k",
   "ind"
  ],
  [
   " w",
   "r"
  ],
  [
   " fe",
   "w"
  ],
  [
   " ",
   "en"
  ],
  [
   " ",
   "M"
  ],
  [
   " wr",
   "ong"
  ],
  [
   " d",
   "id"
  ],
  [
   "ll",
   "o"
  ],
  [
   "he",
   "llo"
  ],
  [
   " th",
   "an"
  ],
  [
   "in",
   "n"
  ],
  [
   "ro",
   "b"
  ],
  [
   "w",
   "hy"
  ],
  [
   "me",
   "thing"
  ],
  [
   " so",
   "mething"
  ],
  [
   " b",
   "ad"
  ],
  [
   " th",
   "re"
  ],
  [
   " ",
   "help"
  ],
  [
   " happen",
   "ed"
  ],
  [
   "orr",
   "y"
  ],
  [
   "k",
   "ay"
  ],
  [
   " w",
   "on"
  ],
  [
   " s",
   "u"
  ],
  [
   " q",
   "u"
  ],
  [
   "i",
   "e"
  ],
  [
   "ac",
   "k"
  ],
  [
   "o",
   "g"
  ],
  [
   " t",
   "r"
  ],
  [
   " m",
   "ind"
  ],
  [
   " s",
   "orry"
  ],
  [
   "ues",
   "tion"
  ],
  [
   "f",
   "air"
  ],
  [
   " q",
   "uestion"
  ],
  [
   "t",
   "er"
  ],
  [
   " ",
   "H"
  ],
  [
   "g",
   "ood"
  ],
  [
   "ou",
   "r"
  ],
  [
   "e",
   "l"
  ],
  [
   " fe",
   "el"
  ],
  [
   "g",
   "l"
  ],
  [
   "t",
   "r"
  ],
  [
   "r",
   "ight"
  ],
  [
   "g",
   "e"
  ],
  [
   " c",
   "an"
  ],
  [
   " actu",
   "ally"
  ],
  [
   "w",
   "ay"
  ],
  [
   " wee",
   "k"
  ],
  [
   "soun",
   "ds"
  ],
  [
   " wor",
   "th"
  ],
  [
   "m",
   "akes"
  ],
  [
   " s",
   "ense"
  ],
  [
   " bor",
   "ing"
  ],
  [
   "i",
   "me"
  ],
  [
   " t",
   "ime"
  ],
  [
   " sp",
   "ent"
  ],
  [
   "gl",
   "ad"
  ],
  [
   " wor",
   "ked"
  ],
  [
   "z",
   "z"
  ],
  [
   "ti",
   "r"
  ],
  [
   "tir",
   "ing"
  ],
  [
   "d",
   "ing"
  ],
  [
   " to",
   "m"
  ],
  [
   "u",
   "l"
  ],
  [
   "ot",
   "her"
  ],
  [
   "b",
   "r"
  ],
  [
   " i",
   "f"
  ],
  [
   " we",
   "ather"
  ],
  [
   " call",
   "ed"
  ],
  [
   "orr",
   "ow"
  ],
  [
   " tom",
   "orrow"
  ],
  [
   " b",
   "i"
  ],
  [
   "o",
   "kay"
  ],
  [
   "s",
   "w"
  ],
  [
   "aa",
   "aa"
  ],
  [
   " li",
   "ve"
  ],
  [
   "i",
   "on"
  ],
  [
   " ",
   "We"
  ],
  [
   " re",
   "ad"
  ],
  [
   " ",
   "v"
  ],
  [
   "l",
   "o"
  ],
  [
   "w",
   "ould"
  ],
  [
   " r",
   "ather"
  ],
  [
   "r",
   "i"
  ],
  [
   " d",
   "on"
  ],
  [
   " f",
   "ri"
  ],
  [
   "v",
   "ed"
  ],
  [
   " w",
   "ould"
  ],
  [
   "as",
   "t"
  ],
  [
   " g",
   "u"
  ],
  [
   " g",
   "uess"
  ],
  [
   " g",
   "ame"
  ],
  [
   " ",
   "R"
  ],
  [
   " ",
   "A"
  ],
  [
   "en",
   "d"
  ],
  [
   "end",
   "ly"
  ],
  [
   " fri",
   "endly"
  ],
  [
   "sw",
   "ers"
  ],
  [
   " an",
   "swers"
  ],
  [
   " e",
   "very"
  ],
  [
   " a",
   "w"
  ],
  [
   "i",
   "x"
  ],
  [
   "u",
   "gh"
  ],
  [
   " co",
   "lor"
  ],
  [
   "tt",
   "y"
  ],
  [
   "re",
   "tty"
  ],
  [
   "p",
   "retty"
  ],
  [
   " ",
   "J"
  ],
  [
   "es",
   "s"
  ],
  [
   "bb",
   "y"
  ],
  [
   "e",
   "p"
  ],
  [
   "w",
   "ing"
  ],
  [
   "ti",
   "ll"
  ],
  [
   "r",
   "ap"
  ],
  [
   "h",
   "ot"
  ],
  [
   "rap",
   "hy"
  ],
  [
   "og",
   "raphy"
  ],
  [
   "hot",
   "ography"
  ],
  [
   " to",
   "o"
  ],
  [
   " b",
   "l"
  ],
  [
   "oo",
   "king"
  ],
  [
   " go",
   "ing"
  ],
  [
   "it",
   "ar"
  ],
  [
   " to",
   "ld"
  ],
  [
   " r",
   "ain"
  ],
  [
   "a",
   "king"
  ],
  [
   " ho",
   "bby"
  ],
  [
   "ye",
   "ah"
  ],
  [
   "ow",
   "ed"
  ],
  [
   "de",
   "a"
  ],
  [
   " i",
   "dea"
  ],
  [
   " all",
   "owed"
  ],
  [
   "m",
   "ing"
  ],
  [
   "im",
   "ming"
  ],
  [
   "le",
   "ep"
  ],
  [
   " s",
   "leep"
  ],
  [
   "ra",
   "wing"
  ],
  [
   " ",
   "jo"
  ]
 ]
}