{
 "specials": [
  "<pad>",
  "<bos>",
  "<eos>",
  "<user>",
  "<assistant>",
  "<mem>",
  "<unk>"
 ],
 "lowercase": false,
 "alphabet": [
  " ",
  "!",
  "\"",
  "'",
  "(",
  ")",
  ",",
  "-",
  ".",
  "0",
  "1",
  "2",
  "3",
  "4",
  "5",
  "6",
  "7",
  "8",
  "9",
  ":",
  ";",
  "?",
  "A",
  "B",
  "C",
  "D",
  "E",
  "F",
  "G",
  "H",
  "I",
  "J",
  "K",
  "L",
  "M",
  "N",
  "O",
  "P",
  "Q",
  "R",
  "S",
  "T",
  "U",
  "V",
  "W",
  "X",
  "Y",
  "Z",
  "_",
  "a",
  "b",
  "c",
  "d",
  "e",
  "f",
  "g",
  "h",
  "i",
  "j",
  "k",
  "l",
  "m",
  "n",
  "o",
  "p",
  "q",
  "r",
  "s",
  "t",
  "u",
  "v",
  "w",
  "x",
  "y",
  "z",
  "—"
 ],
 "merges": [
  [
   " ",
   "t"
  ],
  [
   " ",
   "w"
  ],
  [
   " ",
   "a"
  ],
  [
   "i",
   "n"
  ],
  [
   "o",
   "u"
  ],
  [
   "a",
   "t"
  ],
  [
   "i",
   "t"
  ],
  [
   "o",
   "r"
  ],
  [
   "h",
   "at"
  ],
  [
   "h",
   "e"
  ],
  [
   "y",
   "ou"
  ],
  [
   "in",
   "g"
  ],
  [
   " ",
   "s"
  ],
  [
   "k",
   "e"
  ],
  [
   " ",
   "f"
  ],
  [
   "r",
   "e"
  ],
  [
   " ",
   "you"
  ],
  [
   "l",
   "l"
  ],
  [
   " ",
   "b"
  ],
  [
   " ",
   "g"
  ],
  [
   "m",
   "e"
  ],
  [
   "o",
   "n"
  ],
  [
   " ",
   "d"
  ],
  [
   " ",
   "it"
  ],
  [
   " ",
   "c"
  ],
  [
   "o",
   "o"
  ],
  [
   " ",
   "h"
  ],
  [
   " ",
   "I"
  ],
  [
   "e",
   "n"
  ],
  [
   "e",
   "r"
  ],
  [
   " t",
   "o"
  ],
  [
   "o",
   "w"
  ],
  [
   "a",
   "n"
  ],
  [
   "i",
   "s"
  ],
  [
   "a",
   "v"
  ],
  [
   " ",
   "l"
  ],
  [
   " w",
   "hat"
  ],
  [
   "a",
   "y"
  ],
  [
   "o",
   "t"
  ],
  [
   " d",
   "o"
  ],
  [
   " t",
   "he"
  ],
  [
   " ",
   "p"
  ],
  [
   "oo",
   "d"
  ],
  [
   " ",
   "m"
  ],
  [
   " ",
   "is"
  ],
  [
   "it",
   "e"
  ],
  [
   " a",
   "n"
  ],
  [
   " l",
   "i"
  ],
  [
   "or",
   "ite"
  ],
  [
   "av",
   "orite"
  ],
  [
   " f",
   "avorite"
  ],
  [
   " b",
   "e"
  ],
  [
   "a",
   "r"
  ],
  [
   "e",
   "s"
  ],
  [
   " ",
   "n"
  ],
  [
   "ou",
   "t"
  ],
  [
   " ",
   "me"
  ],
  [
   " ",
   "r"
  ],
  [
   "w",
   "hat"
  ],
  [
   "o",
   "c"
  ],
  [
   "oc",
   "ke"
  ],
  [
   "ocke",
   "t"
  ],
  [
   "o",
   "l"
  ],
  [
   "a",
   "me"
  ],
  [
   " li",
   "ke"
  ],
  [
   "i",
   "d"
  ],
  [
   "ocket",
   "L"
  ],
  [
   "ocketL",
   "M"
  ],
  [
   "P",
   "ocketLM"
  ],
  [
   "g",
   "h"
  ],
  [
   " ",
   "on"
  ],
  [
   "a",
   "ll"
  ],
  [
   "a",
   "s"
  ],
  [
   "i",
   "c"
  ],
  [
   " ",
   "PocketLM"
  ],
  [
   " t",
   "hat"
  ],
  [
   "b",
   "out"
  ],
  [
   "e",
   "d"
  ],
  [
   " w",
   "e"
  ],
  [
   "en",
   "t"
  ],
  [
   " h",
   "ow"
  ],
  [
   " a",
   "bout"
  ],
  [
   "l",
   "d"
  ],
  [
   "an",
   "t"
  ],
  [
   "t",
   "t"
  ],
  [
   " t",
   "h"
  ],
  [
   " an",
   "d"
  ],
  [
   "o",
   "b"
  ],
  [
   " ",
   "—"
  ],
  [
   "o",
   "f"
  ],
  [
   " g",
   "ood"
  ],
  [
   "ic",
   "e"
  ],
  [
   " on",
   "e"
  ],
  [
   "a",
   "d"
  ],
  [
   "t",
   "h"
  ],
  [
   "i",
   "gh"
  ],
  [
   " like",
   "s"
  ],
  [
   "ol",
   "or"
  ],
  [
   " w",
   "ant"
  ],
  [
   " g",
   "o"
  ],
  [
   "l",
   "e"
  ],
  [
   "igh",
   "t"
  ],
  [
   "n",
   "ame"
  ],
  [
   "u",
   "p"
  ],
  [
   " ",
   "of"
  ],
  [
   "ou",
   "ld"
  ],
  [
   " w",
   "as"
  ],
  [
   "r",
   "a"
  ],
  [
   "u",
   "n"
  ],
  [
   "b",
   "y"
  ],
  [
   " a",
   "s"
  ],
  [
   "v",
   "er"
  ],
  [
   "a",
   "l"
  ],
  [
   "h",
   "i"
  ],
  [
   "v",
   "e"
  ],
  [
   "he",
   "y"
  ],
  [
   "t",
   "i"
  ],
  [
   " ",
   "T"
  ],
  [
   " you",
   "r"
  ],
  [
   "he",
   "re"
  ],
  [
   " ",
   "k"
  ],
  [
   "y",
   "e"
  ],
  [
   " ",
   "up"
  ],
  [
   "ob",
   "by"
  ],
  [
   " h",
   "obby"
  ],
  [
   " h",
   "av"
  ],
  [
   "on",
   "g"
  ],
  [
   " ",
   "in"
  ],
  [
   " w",
   "ent"
  ],
  [
   "in",
   "d"
  ],
  [
   "in",
   "e"
  ],
  [
   "s",
   "e"
  ],
  [
   " a",
   "re"
  ],
  [
   "f",
   "ood"
  ],
  [
   "c",
   "olor"
  ],
  [
   "a",
   "c"
  ],
  [
   " ",
   "e"
  ],
  [
   "d",
   "ay"
  ],
  [
   " m",
   "y"
  ],
  [
   "n",
   "ice"
  ],
  [
   "a",
   "id"
  ],
  [
   " s",
   "aid"
  ],
  [
   " t",
   "e"
  ],
  [
   " be",
   "en"
  ],
  [
   "l",
   "y"
  ],
  [
   "ke",
   "d"
  ],
  [
   "th",
   "ing"
  ],
  [
   " an",
   "y"
  ],
  [
   "a",
   "in"
  ],
  [
   " n",
   "ot"
  ],
  [
   " w",
   "or"
  ],
  [
   "u",
   "es"
  ],
  [
   "ver",
   "y"
  ],
  [
   " b",
   "u"
  ],
  [
   " ",
   "or"
  ],
  [
   "all",
   "y"
  ],
  [
   " s",
   "o"
  ],
  [
   " ",
   "re"
  ],
  [
   "n",
   "ow"
  ],
  [
   " k",
   "now"
  ],
  [
   " ",
   "S"
  ],
  [
   "he",
   "r"
  ],
  [
   " hav",
   "e"
  ],
  [
   "k",
   "ing"
  ],
  [
   "it",
   "h"
  ],
  [
   "a",
   "ke"
  ],
  [
   "m",
   "all"
  ],
  [
   "m",
   "y"
  ],
  [
   " do",
   "ing"
  ],
  [
   " g",
   "re"
  ],
  [
   "in",
   "k"
  ],
  [
   " p",
   "l"
  ],
  [
   "oo",
   "l"
  ],
  [
   "t",
   "hat"
  ],
  [
   " s",
   "mall"
  ],
  [
   " te",
   "ll"
  ],
  [
   "tt",
   "er"
  ],
  [
   " be",
   "tter"
  ],
  [
   "c",
   "t"
  ],
  [
   "d",
   "o"
  ],
  [
   "or",
   "e"
  ],
  [
   " m",
   "ore"
  ],
  [
   "d",
   "s"
  ],
  [
   " I",
   "t"
  ],
  [
   " r",
   "ight"
  ],
  [
   "a",
   "h"
  ],
  [
   " th",
   "ink"
  ],
  [
   "n",
   "ot"
  ],
  [
   " w",
   "ith"
  ],
  [
   "n",
   "o"
  ],
  [
   " f",
   "e"
  ],
  [
   " ",
   "out"
  ],
  [
   " ",
   "q"
  ],
  [
   "or",
   "r"
  ],
  [
   "u",
   "r"
  ],
  [
   "i",
   "ll"
  ],
  [
   " w",
   "ill"
  ],
  [
   " f",
   "or"
  ],
  [
   "h",
   "o"
  ],
  [
   " g",
   "e"
  ],
  [
   " c",
   "o"
  ],
  [
   " ",
   "here"
  ],
  [
   "t",
   "o"
  ],
  [
   " n",
   "e"
  ],
  [
   " as",
   "ked"
  ],
  [
   "h",
   "y"
  ],
  [
   "a",
   "a"
  ],
  [
   " ",
   "ye"
  ],
  [
   "i",
   "r"
  ],
  [
   "r",
   "o"
  ],
  [
   " pl",
   "ay"
  ],
  [
   " any",
   "thing"
  ],
  [
   " we",
   "ll"
  ],
  [
   "ou",
   "n"
  ],
  [
   " as",
   "k"
  ],
  [
   " T",
   "he"
  ],
  [
   " s",
   "p"
  ],
  [
   "at",
   "her"
  ],
  [
   " a",
   "ll"
  ],
  [
   "ti",
   "on"
  ],
  [
   " in",
   "to"
  ],
  [
   "ar",
   "d"
  ],
  [
   "o",
   "s"
  ],
  [
   "ou",
   "r"
  ],
  [
   " c",
   "ould"
  ],
  [
   "ou",
   "gh"
  ],
  [
   "m",
   "ine"
  ],
  [
   " bu",
   "t"
  ],
  [
   "l",
   "p"
  ],
  [
   "ake",
   "s"
  ],
  [
   " d",
   "ay"
  ],
  [
   "a",
   "m"
  ],
  [
   " t",
   "al"
  ],
  [
   "a",
   "p"
  ],
  [
   "ard",
   "en"
  ],
  [
   "ct",
   "u"
  ],
  [
   " a",
   "ctu"
  ],
  [
   "d",
   "ing"
  ],
  [
   " tal",
   "k"
  ],
  [
   "h",
   "ow"
  ],
  [
   "ic",
   "k"
  ],
  [
   " p",
   "ar"
  ],
  [
   " f",
   "un"
  ],
  [
   " c",
   "hat"
  ],
  [
   "he",
   "lp"
  ],
  [
   " g",
   "arden"
  ],
  [
   " r",
   "un"
  ],
  [
   "a",
   "re"
  ],
  [
   "er",
   "s"
  ],
  [
   "e",
   "k"
  ],
  [
   " we",
   "ek"
  ],
  [
   "i",
   "f"
  ],
  [
   " ",
   "M"
  ],
  [
   " gre",
   "at"
  ],
  [
   " ",
   "very"
  ],
  [
   "c",
   "ool"
  ],
  [
   "re",
   "ally"
  ],
  [
   " s",
   "t"
  ],
  [
   "g",
   "ot"
  ],
  [
   "o",
   "k"
  ],
  [
   "n",
   "ing"
  ],
  [
   " n",
   "ame"
  ],
  [
   "W",
   "e"
  ],
  [
   "g",
   "ood"
  ],
  [
   "x",
   "t"
  ],
  [
   " ne",
   "xt"
  ],
  [
   " g",
   "ot"
  ],
  [
   "p",
   "en"
  ],
  [
   " l",
   "ong"
  ],
  [
   "g",
   "e"
  ],
  [
   "tt",
   "ing"
  ],
  [
   " ge",
   "tting"
  ],
  [
   "ap",
   "pen"
  ],
  [
   " h",
   "appen"
  ],
  [
   "b",
   "ot"
  ],
  [
   " chat",
   "bot"
  ],
  [
   " c",
   "all"
  ],
  [
   " the",
   "re"
  ],
  [
   "u",
   "c"
  ],
  [
   " to",
   "day"
  ],
  [
   "i",
   "m"
  ],
  [
   "h",
   "or"
  ],
  [
   "i",
   "e"
  ],
  [
   " c",
   "olor"
  ],
  [
   "t",
   "er"
  ],
  [
   " to",
   "ld"
  ],
  [
   "in",
   "n"
  ],
  [
   "at",
   "er"
  ],
  [
   "id",
   "e"
  ],
  [
   "hor",
   "t"
  ],
  [
   " s",
   "hort"
  ],
  [
   "u",
   "s"
  ],
  [
   "i",
   "on"
  ],
  [
   "a",
   "ir"
  ],
  [
   " ",
   "H"
  ],
  [
   "t",
   "ly"
  ],
  [
   " your",
   "s"
  ],
  [
   "o",
   "h"
  ],
  [
   " b",
   "or"
  ],
  [
   "r",
   "ight"
  ],
  [
   "an",
   "y"
  ],
  [
   " c",
   "ol"
  ],
  [
   "g",
   "ain"
  ],
  [
   " a",
   "gain"
  ],
  [
   "s",
   "oun"
  ],
  [
   "en",
   "se"
  ],
  [
   "g",
   "l"
  ],
  [
   "o",
   "g"
  ],
  [
   "ues",
   "s"
  ],
  [
   "e",
   "l"
  ],
  [
   " ",
   "en"
  ],
  [
   "k",
   "ind"
  ],
  [
   "oo",
   "h"
  ],
  [
   " fe",
   "w"
  ],
  [
   "j",
   "o"
  ],
  [
   "ll",
   "o"
  ],
  [
   "he",
   "llo"
  ],
  [
   " b",
   "ad"
  ],
  [
   " d",
   "id"
  ],
  [
   "i",
   "me"
  ],
  [
   " t",
   "ime"
  ],
  [
   "r",
   "ong"
  ],
  [
   " w",
   "rong"
  ],
  [
   " th",
   "an"
  ],
  [
   "r",
   "ob"
  ],
  [
   "ac",
   "k"
  ],
  [
   "w",
   "ing"
  ],
  [
   " ",
   "if"
  ],
  [
   " d",
   "on"
  ],
  [
   " ",
   "R"
  ],
  [
   " ",
   "A"
  ],
  [
   "as",
   "t"
  ],
  [
   " th",
   "re"
  ],
  [
   " w",
   "on"
  ],
  [
   "b",
   "er"
  ],
  [
   " ",
   "J"
  ],
  [
   "a",
   "b"
  ],
  [
   "m",
   "ber"
  ],
  [
   " q",
   "u"
  ],
  [
   " ",
   "help"
  ],
  [
   "z",
   "z"
  ],
  [
   " m",
   "ind"
  ],
  [
   " happen",
   "ed"
  ],
  [
   "w",
   "hy"
  ],
  [
   "orr",
   "y"
  ],
  [
   "ok",
   "ay"
  ],
  [
   "r",
   "y"
  ],
  [
   "f",
   "air"
  ],
  [
   "ues",
   "tion"
  ],
  [
   " q",
   "uestion"
  ],
  [
   "ra",
   "p"
  ],
  [
   " call",
   "ed"
  ],
  [
   " to",
   "m"
  ],
  [
   "gl",
   "ad"
  ],
  [
   " wor",
   "ked"
  ],
  [
   " actu",
   "ally"
  ],
  [
   "ide",
   "a"
  ],
  [
   " ",
   "idea"
  ],
  [
   " fe",
   "el"
  ],
  [
   " c",
   "an"
  ],
  [
   "w",
   "ay"
  ],
  [
   " s",
   "orry"
  ],
  [
   "me",
   "mber"
  ],
  [
   " re",
   "member"
  ],
  [
   " bor",
   "ing"
  ],
  [
   "me",
   "thing"
  ],
  [
   " so",
   "mething"
  ],
  [
   " sp",
   "ent"
  ],
  [
   "soun",
   "ds"
  ],
  [
   " wor",
   "th"
  ],
  [
   "m",
   "akes"
  ],
  [
   " s",
   "ense"
  ],
  [
   "k",
   "s"
  ],
  [
   "ti",
   "r"
  ],
  [
   "tir",
   "ing"
  ],
  [
   " ye",
   "t"
  ],
  [
   " b",
   "l"
  ],
  [
   "r",
   "i"
  ],
  [
   " c",
   "he"
  ],
  [
   " re",
   "ad"
  ],
  [
   "at",
   "s"
  ],
  [
   "ot",
   "her"
  ],
  [
   "b",
   "r"
  ],
  [
   " g",
   "u"
  ],
  [
   " f",
   "ri"
  ],
  [
   "s",
   "w"
  ],
  [
   " we",
   "ather"
  ],
  [
   "orr",
   "ow"
  ],
  [
   " tom",
   "orrow"
  ],
  [
   "h",
   "ot"
  ],
  [
   " col",
   "our"
  ],
  [
   "ra",
   "wing"
  ],
  [
   "a",
   "king"
  ],
  [
   "g",
   "s"
  ],
  [
   " ",
   "We"
  ],
  [
   "rap",
   "hy"
  ],
  [
   "og",
   "raphy"
  ],
  [
   "hot",
   "ography"
  ],
  [
   "it",
   "ar"
  ],
  [
   "ye",
   "p"
  ],
  [
   "u",
   "l"
  ],
  [
   " b",
   "i"
  ],
  [
   "m",
   "ing"
  ],
  [
   "im",
   "ming"
  ],
  [
   "an",
   "c"
  ],
  [
   " li",
   "ve"
  ],
  [
   "aa",
   "aa"
  ],
  [
   "e",
   "t"
  ],
  [
   "m",
   "or"
  ],
  [
   " ",
   "C"
  ],
  [
   "is",
   "t"
  ],
  [
   "oo",
   "king"
  ],
  [
   " s",
   "e"
  ],
  [
   "c",
   "h"
  ],
  [
   " w",
   "ould"
  ],
  [
   " co",
   "ding"
  ],
  [
   "sw",
   "ers"
  ],
  [
   " an",
   "swers"
  ],
  [
   " f",
   "ood"
  ],
  [
   "en",
   "d"
  ],
  [
   "end",
   "ly"
  ],
  [
   " fri",
   "endly"
  ],
  [
   " run",
   "ning"
  ],
  [
   "u",
   "e"
  ],
  [
   " e",
   "very"
  ],
  [
   " d",
   "rawing"
  ],
  [
   " g",
   "ame"
  ],
  [
   " garden",
   "ing"
  ],
  [
   " ",
   "v"
  ],
  [
   " b",
   "aking"
  ],
  [
   "at",
   "ing"
  ],
  [
   " p",
   "hotography"
  ],
  [
   " gu",
   "itar"
  ],
  [
   "l",
   "o"
  ],
  [
   "e",
   "p"
  ],
  [
   "w",
   "imming"
  ],
  [
   " s",
   "wimming"
  ],
  [
   " read",
   "ing"
  ],
  [
   "u",
   "gh"
  ],
  [
   " t",
   "oo"
  ],
  [
   "w",
   "ould"
  ],
  [
   " r",
   "ather"
  ],
  [
   " g",
   "uess"
  ],
  [
   "i",
   "x"
  ],
  [
   " c",
   "ooking"
  ],
  [
   " a",
   "w"
  ],
  [
   "our",
   "se"
  ],
  [
   " c",
   "ourse"
  ],
  [
   "ti",
   "ll"
  ],
  [
   "v",
   "ed"
  ],
  [
   "s",
   "ay"
  ],
  [
   " a",
   "t"
  ],
  [
   " r",
   "ain"
  ],
  [
   " wor",
   "k"
  ],
  [
   "s",
   "s"
  ],
  [
   "ou",
   "p"
  ],
  [
   "tt",
   "y"
  ],
  [
   "re",
   "tty"
  ],
  [
   "p",
   "retty"
  ],
  [
   "s",
   "o"
  ],
  [
   " go",
   "ing"
  ],
  [
   "w",
   "ho"
  ],
  [
   " n",
   "ow"
  ],
  [
   " a",
   "m"
  ],
  [
   "th",
   "s"
  ],
  [
   "on",
   "ths"
  ],
  [
   " m",
   "onths"
  ],
  [
   " h",
   "as"
  ],
  [
   "l",
   "es"
  ],
  [
   " s",
   "oup"
  ],
  [
   "ye",
   "ah"
  ],
  [
   "ow",
   "ed"
  ],
  [
   " all",
   "owed"
  ],
  [
   " st",
   "ay"
  ],
  [
   "ong",
   "s"
  ],
  [
   "l",
   "ongs"
  ],
  [
   " m",
   "ine"
  ],
  [
   " be",
   "longs"
  ],
  [
   " ",
   "other"
  ],
  [
   " r",
   "ough"
  ],
  [
   "it",
   "s"
  ],
  [
   "ra",
   "c"
  ],
  [
   "rac",
   "tion"
  ],
  [
   "ist",
   "raction"
  ],
  [
   " v",
   "ent"
  ],
  [
   " d",
   "istraction"
  ],
  [
   "le",
   "ep"
  ],
  [
   " s",
   "leep"
  ],
  [
   "k",
   "y"
  ],
  [
   "ac",
   "os"
  ],
  [
   " ge",
   "t"
  ],
  [
   "p",
   "er"
  ],
  [
   " gre",
   "en"
  ],
  [
   "inn",
   "er"
  ],
  [
   "f",
   "ter"
  ],
  [
   " play",
   "ed"
  ],
  [
   " d",
   "inner"
  ],
  [
   " a",
   "fter"
  ],
  [
   " w",
   "ater"
  ],
  [
   "ol",
   "d"
  ],
  [
   "u",
   "re"
  ],
  [
   " w",
   "here"
  ],
  [
   "zz",
   "a"
  ],
  [
   "i",
   "zza"
  ],
  [
   " thre",
   "e"
  ],
  [
   " qu",
   "ite"
  ],
  [
   "f",
   "ul"
  ],
  [
   " aw",
   "ful"
  ],
  [
   "ur",
   "ry"
  ],
  [
   " b",
   "ack"
  ],
  [
   "anc",
   "akes"
  ],
  [
   "us",
   "hi"
  ],
  [
   " t",
   "acos"
  ],
  [
   "y",
   "ing"
  ],
  [
   "jo",
   "ying"
  ],
  [
   " en",
   "joying"
  ],
  [
   "ues",
   "day"
  ],
  [
   " T",
   "uesday"
  ],
  [
   " b",
   "it"
  ],
  [
   "ast",
   "a"
  ],
  [
   "c",
   "ra"
  ],
  [
   " of",
   "f"
  ],
  [
   "an",
   "d"
  ],
  [
   " H",
   "e"
  ],
  [
   " p",
   "izza"
  ],
  [
   " ",
   "D"
  ],
  [
   "ame",
   "n"
  ],
  [
   "on",
   "es"
  ],
  [
   "ones",
   "tly"
  ],
  [
   " h",
   "onestly"
  ],
  [
   " ",
   "E"
  ],
  [
   " f",
   "ro"
  ],
  [
   "ic",
   "king"
  ],
  [
   " st",
   "icking"
  ],
  [
   " s",
   "ushi"
  ],
  [
   " c",
   "urry"
  ],
  [
   "an",
   "ge"
  ],
  [
   " p",
   "ancakes"
  ],
  [
   " n",
   "ice"
  ],
  [
   "os",
   "t"
  ],
  [
   " l",
   "ost"
  ],
  [
   " p",
   "asta"
  ],
  [
   "r",
   "ick"
  ],
  [
   "rick",
   "y"
  ],
  [
   " t",
   "ricky"
  ],
  [
   " par",
   "t"
  ],
  [
   " f",
   "ar"
  ],
  [
   " e",
   "x"
  ],
  [
   "u",
   "inn"
  ],
  [
   "Q",
   "uinn"
  ],
  [
   "le",
   "x"
  ],
  [
   "l",
   "or"
  ],
  [
   "ay",
   "lor"
  ],
  [
   "p",
   "le"
  ],
  [
   "le",
   "y"
  ],
  [
   "i",
   "ley"
  ],
  [
   " r",
   "amen"
  ]
 ]
}