{
 "specials": [
  "<pad>",
  "<bos>",
  "<eos>",
  "<user>",
  "<assistant>",
  "<mem>",
  "<unk>"
 ],
 "lowercase": false,
 "alphabet": [
  " ",
  "!",
  "\"",
  "'",
  "(",
  ")",
  ",",
  "-",
  ".",
  "0",
  "1",
  "2",
  "3",
  "4",
  "5",
  "6",
  "7",
  "8",
  "9",
  ":",
  ";",
  "?",
  "A",
  "B",
  "C",
  "D",
  "E",
  "F",
  "G",
  "H",
  "I",
  "J",
  "K",
  "L",
  "M",
  "N",
  "O",
  "P",
  "Q",
  "R",
  "S",
  "T",
  "U",
  "V",
  "W",
  "X",
  "Y",
  "Z",
  "_",
  "a",
  "b",
  "c",
  "d",
  "e",
  "f",
  "g",
  "h",
  "i",
  "j",
  "k",
  "l",
  "m",
  "n",
  "o",
  "p",
  "q",
  "r",
  "s",
  "t",
  "u",
  "v",
  "w",
  "x",
  "y",
  "z",
  "—"
 ],
 "merges": [
  [
   " ",
   "t"
  ],
  [
   " ",
   "w"
  ],
  [
   " ",
   "a"
  ],
  [
   "o",
   "u"
  ],
  [
   "i",
   "n"
  ],
  [
   "a",
   "t"
  ],
  [
   " ",
   "i"
  ],
  [
   "h",
   "at"
  ],
  [
   "h",
   "e"
  ],
  [
   "y",
   "ou"
  ],
  [
   "o",
   "r"
  ],
  [
   "in",
   "g"
  ],
  [
   " ",
   "you"
  ],
  [
   "l",
   "l"
  ],
  [
   " ",
   "s"
  ],
  [
   " ",
   "b"
  ],
  [
   " ",
   "g"
  ],
  [
   "k",
   "e"
  ],
  [
   "r",
   "e"
  ],
  [
   "o",
   "n"
  ],
  [
   " i",
   "t"
  ],
  [
   " ",
   "d"
  ],
  [
   " ",
   "m"
  ],
  [
   "e",
   "n"
  ],
  [
   " ",
   "c"
  ],
  [
   " ",
   "f"
  ],
  [
   " t",
   "o"
  ],
  [
   " ",
   "I"
  ],
  [
   "o",
   "w"
  ],
  [
   " ",
   "h"
  ],
  [
   "e",
   "r"
  ],
  [
   "o",
   "o"
  ],
  [
   "a",
   "n"
  ],
  [
   " w",
   "hat"
  ],
  [
   " t",
   "he"
  ],
  [
   "a",
   "y"
  ],
  [
   "o",
   "t"
  ],
  [
   "i",
   "t"
  ],
  [
   " d",
   "o"
  ],
  [
   " ",
   "p"
  ],
  [
   " i",
   "s"
  ],
  [
   " a",
   "n"
  ],
  [
   " ",
   "l"
  ],
  [
   " b",
   "e"
  ],
  [
   "e",
   "s"
  ],
  [
   "a",
   "r"
  ],
  [
   " ",
   "n"
  ],
  [
   "ou",
   "t"
  ],
  [
   "c",
   "ke"
  ],
  [
   "o",
   "cke"
  ],
  [
   "ocke",
   "t"
  ],
  [
   "ocket",
   "L"
  ],
  [
   "ocketL",
   "M"
  ],
  [
   "P",
   "ocketLM"
  ],
  [
   "oo",
   "d"
  ],
  [
   " ",
   "r"
  ],
  [
   "a",
   "ll"
  ],
  [
   " ",
   "PocketLM"
  ],
  [
   "a",
   "v"
  ],
  [
   " m",
   "e"
  ],
  [
   " ",
   "on"
  ],
  [
   "m",
   "e"
  ],
  [
   "i",
   "c"
  ],
  [
   "g",
   "h"
  ],
  [
   "w",
   "hat"
  ],
  [
   "a",
   "s"
  ],
  [
   "e",
   "d"
  ],
  [
   " l",
   "i"
  ],
  [
   "b",
   "out"
  ],
  [
   "i",
   "d"
  ],
  [
   " w",
   "e"
  ],
  [
   " h",
   "ow"
  ],
  [
   "l",
   "d"
  ],
  [
   " t",
   "hat"
  ],
  [
   " a",
   "bout"
  ],
  [
   "en",
   "t"
  ],
  [
   " t",
   "h"
  ],
  [
   "an",
   "t"
  ],
  [
   "t",
   "h"
  ],
  [
   "it",
   "e"
  ],
  [
   " g",
   "ood"
  ],
  [
   " ",
   "—"
  ],
  [
   " an",
   "d"
  ],
  [
   " ",
   "o"
  ],
  [
   "t",
   "t"
  ],
  [
   "ic",
   "e"
  ],
  [
   " on",
   "e"
  ],
  [
   " w",
   "ant"
  ],
  [
   "a",
   "d"
  ],
  [
   " li",
   "ke"
  ],
  [
   "a",
   "me"
  ],
  [
   "l",
   "e"
  ],
  [
   " g",
   "o"
  ],
  [
   "i",
   "gh"
  ],
  [
   "u",
   "p"
  ],
  [
   " o",
   "f"
  ],
  [
   " w",
   "as"
  ],
  [
   " you",
   "r"
  ],
  [
   "or",
   "ite"
  ],
  [
   "av",
   "orite"
  ],
  [
   "ou",
   "ld"
  ],
  [
   " f",
   "avorite"
  ],
  [
   "igh",
   "t"
  ],
  [
   " a",
   "s"
  ],
  [
   "v",
   "er"
  ],
  [
   "he",
   "y"
  ],
  [
   "v",
   "e"
  ],
  [
   "t",
   "i"
  ],
  [
   " c",
   "o"
  ],
  [
   "a",
   "l"
  ],
  [
   "u",
   "n"
  ],
  [
   "a",
   "c"
  ],
  [
   " ",
   "k"
  ],
  [
   " ",
   "up"
  ],
  [
   "on",
   "g"
  ],
  [
   " a",
   "re"
  ],
  [
   "h",
   "i"
  ],
  [
   " w",
   "ent"
  ],
  [
   " ",
   "in"
  ],
  [
   "in",
   "e"
  ],
  [
   " ",
   "T"
  ],
  [
   "a",
   "in"
  ],
  [
   "he",
   "re"
  ],
  [
   "n",
   "ice"
  ],
  [
   "in",
   "d"
  ],
  [
   "th",
   "ing"
  ],
  [
   "d",
   "ay"
  ],
  [
   "y",
   "e"
  ],
  [
   "l",
   "y"
  ],
  [
   "s",
   "e"
  ],
  [
   " an",
   "y"
  ],
  [
   " be",
   "en"
  ],
  [
   " ",
   "e"
  ],
  [
   " h",
   "av"
  ],
  [
   " s",
   "o"
  ],
  [
   "u",
   "es"
  ],
  [
   "ke",
   "d"
  ],
  [
   "all",
   "y"
  ],
  [
   " n",
   "ot"
  ],
  [
   " ",
   "or"
  ],
  [
   " t",
   "e"
  ],
  [
   "ver",
   "y"
  ],
  [
   "it",
   "h"
  ],
  [
   " b",
   "u"
  ],
  [
   "n",
   "ow"
  ],
  [
   "he",
   "r"
  ],
  [
   " k",
   "now"
  ],
  [
   "r",
   "o"
  ],
  [
   " w",
   "or"
  ],
  [
   "a",
   "id"
  ],
  [
   " s",
   "aid"
  ],
  [
   "l",
   "or"
  ],
  [
   " do",
   "ing"
  ],
  [
   "m",
   "all"
  ],
  [
   "oo",
   "l"
  ],
  [
   "t",
   "hat"
  ],
  [
   "m",
   "y"
  ],
  [
   "a",
   "p"
  ],
  [
   "a",
   "ke"
  ],
  [
   " s",
   "mall"
  ],
  [
   " hav",
   "e"
  ],
  [
   "in",
   "k"
  ],
  [
   " ",
   "S"
  ],
  [
   " p",
   "l"
  ],
  [
   "tt",
   "er"
  ],
  [
   " be",
   "tter"
  ],
  [
   "a",
   "h"
  ],
  [
   " g",
   "re"
  ],
  [
   "ic",
   "k"
  ],
  [
   "or",
   "e"
  ],
  [
   " m",
   "ore"
  ],
  [
   " w",
   "ith"
  ],
  [
   "n",
   "ot"
  ],
  [
   "i",
   "s"
  ],
  [
   " I",
   "t"
  ],
  [
   " th",
   "ink"
  ],
  [
   " f",
   "e"
  ],
  [
   " te",
   "ll"
  ],
  [
   " ",
   "out"
  ],
  [
   " n",
   "e"
  ],
  [
   " ",
   "q"
  ],
  [
   " m",
   "y"
  ],
  [
   "d",
   "o"
  ],
  [
   " g",
   "e"
  ],
  [
   "a",
   "m"
  ],
  [
   "d",
   "s"
  ],
  [
   "n",
   "o"
  ],
  [
   "c",
   "t"
  ],
  [
   "or",
   "r"
  ],
  [
   " like",
   "s"
  ],
  [
   " r",
   "ight"
  ],
  [
   "t",
   "o"
  ],
  [
   "i",
   "ll"
  ],
  [
   " w",
   "ill"
  ],
  [
   "a",
   "a"
  ],
  [
   " ",
   "here"
  ],
  [
   " f",
   "or"
  ],
  [
   "h",
   "y"
  ],
  [
   " as",
   "ked"
  ],
  [
   " s",
   "p"
  ],
  [
   " any",
   "thing"
  ],
  [
   "ou",
   "n"
  ],
  [
   " as",
   "k"
  ],
  [
   " we",
   "ll"
  ],
  [
   "at",
   "her"
  ],
  [
   "i",
   "r"
  ],
  [
   " pl",
   "ay"
  ],
  [
   "ti",
   "on"
  ],
  [
   " a",
   "ll"
  ],
  [
   "h",
   "o"
  ],
  [
   " ",
   "re"
  ],
  [
   "u",
   "r"
  ],
  [
   " d",
   "ay"
  ],
  [
   "ou",
   "gh"
  ],
  [
   "al",
   "k"
  ],
  [
   " t",
   "alk"
  ],
  [
   " c",
   "ould"
  ],
  [
   " T",
   "he"
  ],
  [
   "m",
   "ine"
  ],
  [
   " bu",
   "t"
  ],
  [
   " ",
   "ye"
  ],
  [
   "ct",
   "u"
  ],
  [
   " a",
   "ctu"
  ],
  [
   " in",
   "to"
  ],
  [
   "er",
   "s"
  ],
  [
   "k",
   "ing"
  ],
  [
   "c",
   "ool"
  ],
  [
   "l",
   "p"
  ],
  [
   "ar",
   "d"
  ],
  [
   "ake",
   "s"
  ],
  [
   "k",
   "s"
  ],
  [
   "he",
   "lp"
  ],
  [
   "n",
   "ame"
  ],
  [
   "h",
   "ow"
  ],
  [
   " n",
   "ame"
  ],
  [
   " p",
   "ar"
  ],
  [
   " gre",
   "at"
  ],
  [
   "d",
   "e"
  ],
  [
   "x",
   "t"
  ],
  [
   " ne",
   "xt"
  ],
  [
   " we",
   "e"
  ],
  [
   "b",
   "ot"
  ],
  [
   " c",
   "hat"
  ],
  [
   "g",
   "ot"
  ],
  [
   "c",
   "o"
  ],
  [
   "o",
   "s"
  ],
  [
   " ",
   "very"
  ],
  [
   " g",
   "ot"
  ],
  [
   "a",
   "re"
  ],
  [
   "b",
   "b"
  ],
  [
   "re",
   "ally"
  ],
  [
   " your",
   "s"
  ],
  [
   "ard",
   "en"
  ],
  [
   "p",
   "en"
  ],
  [
   "ap",
   "pen"
  ],
  [
   " h",
   "appen"
  ],
  [
   " l",
   "ong"
  ],
  [
   "j",
   "o"
  ],
  [
   "r",
   "a"
  ],
  [
   "co",
   "lor"
  ],
  [
   " r",
   "un"
  ],
  [
   " f",
   "un"
  ],
  [
   " to",
   "day"
  ],
  [
   " s",
   "t"
  ],
  [
   "t",
   "ly"
  ],
  [
   "i",
   "m"
  ],
  [
   "tt",
   "ing"
  ],
  [
   " ge",
   "tting"
  ],
  [
   "an",
   "y"
  ],
  [
   " g",
   "arden"
  ],
  [
   "W",
   "e"
  ],
  [
   "at",
   "er"
  ],
  [
   " the",
   "re"
  ],
  [
   " s",
   "h"
  ],
  [
   " h",
   "o"
  ],
  [
   "c",
   "h"
  ],
  [
   "a",
   "ir"
  ],
  [
   " chat",
   "bot"
  ],
  [
   "s",
   "o"
  ],
  [
   " b",
   "or"
  ],
  [
   "or",
   "t"
  ],
  [
   " sh",
   "ort"
  ],
  [
   "ues",
   "s"
  ],
  [
   "n",
   "ing"
  ],
  [
   "s",
   "oun"
  ],
  [
   "en",
   "se"
  ],
  [
   " c",
   "all"
  ],
  [
   "o",
   "h"
  ],
  [
   "oo",
   "h"
  ],
  [
   "g",
   "ain"
  ],
  [
   " a",
   "gain"
  ],
  [
   "c",
   "e"
  ],
  [
   "k",
   "ind"
  ],
  [
   " w",
   "r"
  ],
  [
   " fe",
   "w"
  ],
  [
   " ",
   "en"
  ],
  [
   " ",
   "M"
  ],
  [
   " wr",
   "ong"
  ],
  [
   " d",
   "id"
  ],
  [
   "ll",
   "o"
  ],
  [
   "he",
   "llo"
  ],
  [
   " th",
   "an"
  ],
  [
   "in",
   "n"
  ],
  [
   "ro",
   "b"
  ],
  [
   "w",
   "hy"
  ],
  [
   "me",
   "thing"
  ],
  [
   " so",
   "mething"
  ],
  [
   " b",
   "ad"
  ],
  [
   " th",
   "re"
  ],
  [
   " ",
   "help"
  ],
  [
   " happen",
   "ed"
  ],
  [
   "orr",
   "y"
  ],
  [
   "k",
   "ay"
  ],
  [
   " w",
   "on"
  ],
  [
   " s",
   "u"
  ],
  [
   " q",
   "u"
  ],
  [
   "i",
   "e"
  ],
  [
   "ac",
   "k"
  ],
  [
   "o",
   "g"
  ],
  [
   " t",
   "r"
  ],
  [
   " m",
   "ind"
  ],
  [
   " s",
   "orry"
  ],
  [
   "ues",
   "tion"
  ],
  [
   "f",
   "air"
  ],
  [
   " q",
   "uestion"
  ],
  [
   "t",
   "er"
  ],
  [
   " ",
   "H"
  ],
  [
   "g",
   "ood"
  ],
  [
   "ou",
   "r"
  ],
  [
   "e",
   "l"
  ],
  [
   " fe",
   "el"
  ],
  [
   "g",
   "l"
  ],
  [
   "t",
   "r"
  ],
  [
   "r",
   "ight"
  ],
  [
   "g",
   "e"
  ],
  [
   " c",
   "an"
  ],
  [
   " actu",
   "ally"
  ],
  [
   "w",
   "ay"
  ],
  [
   " wee",
   "k"
  ],
  [
   "soun",
   "ds"
  ],
  [
   " wor",
   "th"
  ],
  [
   "m",
   "akes"
  ],
  [
   " s",
   "ense"
  ],
  [
   " bor",
   "ing"
  ],
  [
   "i",
   "me"
  ],
  [
   " t",
   "ime"
  ],
  [
   " sp",
   "ent"
  ],
  [
   "gl",
   "ad"
  ],
  [
   " wor",
   "ked"
  ],
  [
   "z",
   "z"
  ],
  [
   "ti",
   "r"
  ],
  [
   "tir",
   "ing"
  ],
  [
   "d",
   "ing"
  ],
  [
   " to",
   "m"
  ],
  [
   "u",
   "l"
  ],
  [
   "ot",
   "her"
  ],
  [
   "b",
   "r"
  ],
  [
   " i",
   "f"
  ],
  [
   " we",
   "ather"
  ],
  [
   " call",
   "ed"
  ],
  [
   "orr",
   "ow"
  ],
  [
   " tom",
   "orrow"
  ],
  [
   " b",
   "i"
  ],
  [
   "o",
   "kay"
  ],
  [
   "s",
   "w"
  ],
  [
   "aa",
   "aa"
  ],
  [
   " li",
   "ve"
  ],
  [
   "i",
   "on"
  ],
  [
   " ",
   "We"
  ],
  [
   " re",
   "ad"
  ],
  [
   " ",
   "v"
  ],
  [
   "l",
   "o"
  ],
  [
   "w",
   "ould"
  ],
  [
   " r",
   "ather"
  ],
  [
   "r",
   "i"
  ],
  [
   " d",
   "on"
  ],
  [
   " f",
   "ri"
  ],
  [
   "v",
   "ed"
  ],
  [
   " w",
   "ould"
  ],
  [
   "as",
   "t"
  ],
  [
   " g",
   "u"
  ],
  [
   " g",
   "uess"
  ],
  [
   " g",
   "ame"
  ],
  [
   " ",
   "R"
  ],
  [
   " ",
   "A"
  ],
  [
   "en",
   "d"
  ],
  [
   "end",
   "ly"
  ],
  [
   " fri",
   "endly"
  ],
  [
   "sw",
   "ers"
  ],
  [
   " an",
   "swers"
  ],
  [
   " e",
   "very"
  ],
  [
   " a",
   "w"
  ],
  [
   "i",
   "x"
  ],
  [
   "u",
   "gh"
  ],
  [
   " co",
   "lor"
  ],
  [
   "tt",
   "y"
  ],
  [
   "re",
   "tty"
  ],
  [
   "p",
   "retty"
  ],
  [
   " ",
   "J"
  ],
  [
   "es",
   "s"
  ],
  [
   "bb",
   "y"
  ],
  [
   "e",
   "p"
  ],
  [
   "w",
   "ing"
  ],
  [
   "ti",
   "ll"
  ],
  [
   "r",
   "ap"
  ],
  [
   "h",
   "ot"
  ],
  [
   "rap",
   "hy"
  ],
  [
   "og",
   "raphy"
  ],
  [
   "hot",
   "ography"
  ],
  [
   " to",
   "o"
  ],
  [
   " b",
   "l"
  ],
  [
   "oo",
   "king"
  ],
  [
   " go",
   "ing"
  ],
  [
   "it",
   "ar"
  ],
  [
   " to",
   "ld"
  ],
  [
   " r",
   "ain"
  ],
  [
   "a",
   "king"
  ],
  [
   " ho",
   "bby"
  ],
  [
   "ye",
   "ah"
  ],
  [
   "ow",
   "ed"
  ],
  [
   "de",
   "a"
  ],
  [
   " i",
   "dea"
  ],
  [
   " all",
   "owed"
  ],
  [
   "m",
   "ing"
  ],
  [
   "im",
   "ming"
  ],
  [
   "le",
   "ep"
  ],
  [
   " s",
   "leep"
  ],
  [
   "ra",
   "wing"
  ],
  [
   " ",
   "jo"
  ],
  [
   "f",
   "ood"
  ],
  [
   " a",
   "t"
  ],
  [
   " ",
   "C"
  ],
  [
   " ye",
   "t"
  ],
  [
   " ge",
   "t"
  ],
  [
   " run",
   "ning"
  ],
  [
   " n",
   "ow"
  ],
  [
   " r",
   "ough"
  ],
  [
   "at",
   "ing"
  ],
  [
   "l",
   "our"
  ],
  [
   " co",
   "lour"
  ],
  [
   " co",
   "ding"
  ],
  [
   "on",
   "es"
  ],
  [
   "ones",
   "tly"
  ],
  [
   " h",
   "onestly"
  ],
  [
   " w",
   "ater"
  ],
  [
   "tr",
   "ac"
  ],
  [
   "trac",
   "tion"
  ],
  [
   "is",
   "traction"
  ],
  [
   " v",
   "ent"
  ],
  [
   " d",
   "istraction"
  ],
  [
   "w",
   "ho"
  ],
  [
   " p",
   "hotography"
  ],
  [
   " read",
   "ing"
  ],
  [
   "at",
   "s"
  ],
  [
   " garden",
   "ing"
  ],
  [
   "u",
   "re"
  ],
  [
   " gu",
   "itar"
  ],
  [
   " c",
   "ooking"
  ],
  [
   "u",
   "e"
  ],
  [
   " b",
   "aking"
  ],
  [
   "th",
   "s"
  ],
  [
   "on",
   "ths"
  ],
  [
   " m",
   "onths"
  ],
  [
   " h",
   "as"
  ],
  [
   "f",
   "ul"
  ],
  [
   " aw",
   "ful"
  ],
  [
   "w",
   "imming"
  ],
  [
   " s",
   "wimming"
  ],
  [
   " d",
   "rawing"
  ],
  [
   " of",
   "f"
  ],
  [
   " st",
   "ay"
  ],
  [
   "ong",
   "s"
  ],
  [
   "l",
   "ongs"
  ],
  [
   " m",
   "ine"
  ],
  [
   " be",
   "longs"
  ],
  [
   " ",
   "other"
  ],
  [
   " b",
   "ack"
  ],
  [
   "ick",
   "y"
  ],
  [
   " tr",
   "icky"
  ],
  [
   " par",
   "t"
  ],
  [
   " f",
   "ar"
  ],
  [
   "ick",
   "ing"
  ],
  [
   " st",
   "icking"
  ],
  [
   " c",
   "he"
  ],
  [
   "ers",
   "on"
  ],
  [
   "inn",
   "er"
  ],
  [
   "f",
   "ter"
  ],
  [
   " play",
   "ed"
  ],
  [
   " d",
   "inner"
  ],
  [
   " a",
   "fter"
  ],
  [
   " b",
   "it"
  ],
  [
   "y",
   "ing"
  ],
  [
   "jo",
   "ying"
  ],
  [
   " en",
   "joying"
  ],
  [
   " w",
   "here"
  ],
  [
   "ues",
   "day"
  ],
  [
   " T",
   "uesday"
  ],
  [
   " thre",
   "e"
  ],
  [
   " qu",
   "ite"
  ],
  [
   "os",
   "t"
  ],
  [
   " l",
   "ost"
  ],
  [
   " e",
   "x"
  ],
  [
   "c",
   "ra"
  ],
  [
   " n",
   "ice"
  ],
  [
   " H",
   "e"
  ],
  [
   "s",
   "s"
  ],
  [
   "rob",
   "le"
  ],
  [
   "roble",
   "m"
  ],
  [
   " p",
   "roblem"
  ],
  [
   " actu",
   "al"
  ],
  [
   " e",
   "ar"
  ],
  [
   "se",
   "e"
  ],
  [
   "s",
   "till"
  ],
  [
   "s",
   "t"
  ],
  [
   "it",
   "s"
  ],
  [
   "a",
   "b"
  ],
  [
   "zz",
   "a"
  ],
  [
   "ou",
   "p"
  ],
  [
   "i",
   "zza"
  ],
  [
   "ac",
   "os"
  ],
  [
   " jo",
   "ke"
  ],
  [
   "c",
   "ks"
  ],
  [
   " su",
   "cks"
  ],
  [
   " f",
   "ood"
  ],
  [
   "y",
   "ed"
  ],
  [
   "no",
   "yed"
  ],
  [
   " an",
   "noyed"
  ],
  [
   " n",
   "o"
  ],
  [
   "way",
   "s"
  ],
  [
   "l",
   "ways"
  ],
  [
   " a",
   "lways"
  ],
  [
   "ess",
   "ay"
  ],
  [
   " ",
   "essay"
  ],
  [
   "oo",
   "f"
  ],
  [
   " f",
   "ine"
  ],
  [
   "c",
   "akes"
  ],
  [
   "an",
   "cakes"
  ],
  [
   " s",
   "oup"
  ],
  [
   " s",
   "ay"
  ],
  [
   " t",
   "acos"
  ],
  [
   " s",
   "e"
  ],
  [
   "oo",
   "t"
  ],
  [
   "ur",
   "r"
  ],
  [
   "ld",
   "ing"
  ],
  [
   " p",
   "izza"
  ],
  [
   " ho",
   "lding"
  ],
  [
   " co",
   "de"
  ],
  [
   "ast",
   "a"
  ],
  [
   "urr",
   "y"
  ],
  [
   " wor",
   "k"
  ],
  [
   ".",
   "."
  ],
  [
   "an",
   "ge"
  ],
  [
   " p",
   "ick"
  ],
  [
   "rob",
   "ab"
  ],
  [
   "robab",
   "ly"
  ],
  [
   "p",
   "robably"
  ],
  [
   "ar",
   "m"
  ],
  [
   " w",
   "arm"
  ],
  [
   "so",
   "l"
  ],
  [
   "sol",
   "id"
  ],
  [
   "ho",
   "ice"
  ],
  [
   " c",
   "hoice"
  ],
  [
   "s",
   "hi"
  ],
  [
   " en",
   "ough"
  ],
  [
   " hav",
   "ing"
  ],
  [
   " w",
   "ind"
  ],
  [
   "w",
   "n"
  ],
  [
   " to",
   "wn"
  ],
  [
   "am",
   "en"
  ],
  [
   " p",
   "ancakes"
  ],
  [
   "t",
   "e"
  ],
  [
   "m",
   "or"
  ],
  [
   "ver",
   "s"
  ],
  [
   "vers",
   "ion"
  ],
  [
   " ",
   "version"
  ],
  [
   "k",
   "y"
  ],
  [
   " p",
   "asta"
  ],
  [
   "p",
   "er"
  ],
  [
   " bi",
   "ke"
  ],
  [
   " c",
   "urry"
  ],
  [
   "p",
   "l"
  ],
  [
   "s",
   "in"
  ],
  [
   "sin",
   "ce"
  ],
  [
   " k",
   "id"
  ],
  [
   " or",
   "ange"
  ],
  [
   " su",
   "shi"
  ],
  [
   "ac",
   "h"
  ],
  [
   " be",
   "ach"
  ],
  [
   "ch",
   "ool"
  ],
  [
   " s",
   "chool"
  ],
  [
   "e",
   "t"
  ],
  [
   " me",
   "et"
  ],
  [
   "a",
   "bout"
  ],
  [
   " ye",
   "ar"
  ],
  [
   " c",
   "ool"
  ],
  [
   " r",
   "amen"
  ],
  [
   "te",
   "ll"
  ],
  [
   "ood",
   "s"
  ],
  [
   "an",
   "d"
  ],
  [
   " w",
   "oods"
  ],
  [
   "r",
   "ain"
  ],
  [
   " wee",
   "ks"
  ],
  [
   "u",
   "inn"
  ],
  [
   "Q",
   "uinn"
  ],
  [
   " do",
   "es"
  ],
  [
   "e",
   "y"
  ],
  [
   "br",
   "ar"
  ],
  [
   "brar",
   "y"
  ],
  [
   "as",
   "ey"
  ],
  [
   " li",
   "brary"
  ],
  [
   " par",
   "k"
  ],
  [
   "q",
   "u"
  ],
  [
   "x",
   "pl"
  ],
  [
   "xpl",
   "ain"
  ],
  [
   "e",
   "xplain"
  ],
  [
   "l",
   "er"
  ],
  [
   "ky",
   "ler"
  ],
  [
   "ay",
   "lor"
  ],
  [
   "ow",
   "an"
  ],
  [
   "le",
   "x"
  ],
  [
   "p",
   "e"
  ],
  [
   "no",
   "pe"
  ],
  [
   "v",
   "on"
  ],
  [
   "e",
   "von"
  ],
  [
   "D",
   "evon"
  ],
  [
   "ar",
   "per"
  ],
  [
   "le",
   "y"
  ],
  [
   "i",
   "ley"
  ],
  [
   " gre",
   "en"
  ],
  [
   " ",
   "'"
  ],
  [
   "w",
   "ith"
  ],
  [
   " thre",
   "ad"
  ],
  [
   "or",
   "d"
  ],
  [
   "ord",
   "an"
  ],
  [
   "or",
   "g"
  ],
  [
   "org",
   "an"
  ],
  [
   "ar",
   "k"
  ],
  [
   "am",
   "ie"
  ],
  [
   "y",
   "a"
  ],
  [
   "hi",
   "ya"
  ],
  [
   "g",
   "s"
  ],
  [
   "i",
   "ve"
  ],
  [
   "f",
   "ix"
  ],
  [
   " g",
   "ive"
  ],
  [
   " I",
   "f"
  ],
  [
   "y",
   "o"
  ],
  [
   "I",
   "t"
  ],
  [
   "m",
   "erson"
  ],
  [
   "E",
   "merson"
  ],
  [
   " the",
   "n"
  ],
  [
   "mor",
   "ning"
  ],
  [
   "ac",
   "tly"
  ],
  [
   " m",
   "o"
  ],
  [
   " ex",
   "actly"
  ],
  [
   "T",
   "he"
  ],
  [
   "u",
   "ch"
  ],
  [
   " m",
   "uch"
  ],
  [
   " se",
   "e"
  ],
  [
   "w",
   "ant"
  ],
  [
   " qu",
   "ick"
  ],
  [
   " ",
   "8"
  ],
  [
   "n",
   "ed"
  ],
  [
   "le",
   "br"
  ],
  [
   "lebr",
   "ating"
  ],
  [
   "e",
   "lebrating"
  ],
  [
   " ear",
   "ned"
  ],
  [
   " c",
   "elebrating"
  ],
  [
   " T",
   "here"
  ],
  [
   "re",
   "l"
  ],
  [
   "rel",
   "ie"
  ],
  [
   "relie",
   "ved"
  ],
  [
   "ing",
   "s"
  ],
  [
   " re",
   "d"
  ],
  [
   " S",
   "he"
  ],
  [
   " ",
   "1"
  ],
  [
   " c",
   "ar"
  ],
  [
   "es",
   "er"
  ],
  [
   "eser",
   "ved"
  ],
  [
   "d",
   "eserved"
  ],
  [
   "s",
   "up"
  ],
  [
   "p",
   "le"
  ],
  [
   "zz",
   "ing"
  ],
  [
   "im",
   "al"
  ],
  [
   " bu",
   "zzing"
  ],
  [
   " an",
   "imal"
  ],
  [
   " m",
   "ark"
  ],
  [
   " C",
   "asey"
  ],
  [
   "w",
   "ater"
  ],
  [
   "g",
   "uess"
  ],
  [
   "l",
   "se"
  ],
  [
   " e",
   "lse"
  ],
  [
   "r",
   "id"
  ],
  [
   "rid",
   "ay"
  ],
  [
   "F",
   "riday"
  ],
  [
   " ",
   "Friday"
  ],
  [
   "ll",
   "ow"
  ],
  [
   " p",
   "ro"
  ],
  [
   " ",
   "Quinn"
  ],
  [
   " bl",
   "ue"
  ],
  [
   "l",
   "es"
  ],
  [
   "un",
   "day"
  ],
  [
   " S",
   "unday"
  ],
  [
   "ur",
   "day"
  ],
  [
   "at",
   "urday"
  ],
  [
   " S",
   "aturday"
  ],
  [
   " S",
   "kyler"
  ],
  [
   "on",
   "day"
  ],
  [
   " co",
   "m"
  ],
  [
   " M",
   "onday"
  ],
  [
   "ur",
   "ple"
  ],
  [
   "in",
   "y"
  ],
  [
   " t",
   "iny"
  ],
  [
   " k",
   "ind"
  ],
  [
   " R",
   "owan"
  ],
  [
   " tr",
   "y"
  ],
  [
   " T",
   "aylor"
  ],
  [
   " p",
   "ocket"
  ],
  [
   " A",
   "lex"
  ],
  [
   " S",
   "am"
  ],
  [
   " bi",
   "g"
  ],
  [
   " A",
   "very"
  ],
  [
   " R",
   "iley"
  ],
  [
   "n",
   "ight"
  ],
  [
   " ye",
   "llow"
  ],
  [
   " J",
   "ordan"
  ],
  [
   " pl",
   "an"
  ],
  [
   " H",
   "arper"
  ],
  [
   " o",
   "k"
  ],
  [
   " ",
   "Devon"
  ],
  [
   "b",
   "ye"
  ],
  [
   "ye",
   "p"
  ],
  [
   " bl",
   "ack"
  ],
  [
   " f",
   "ix"
  ],
  [
   " p",
   "urple"
  ],
  [
   " M",
   "organ"
  ],
  [
   " f",
   "in"
  ],
  [
   "c",
   "an"
  ],
  [
   " te",
   "al"
  ],
  [
   " J",
   "amie"
  ],
  [
   " c",
   "ake"
  ],
  [
   " ",
   "Emerson"
  ],
  [
   "s",
   "h"
  ],
  [
   "sh",
   "ould"
  ],
  [
   "aaaa",
   "aaaa"
  ],
  [
   "ur",
   "t"
  ],
  [
   "urt",
   "les"
  ],
  [
   " a",
   "m"
  ],
  [
   "got",
   "ch"
  ],
  [
   "gotch",
   "a"
  ],
  [
   " ne",
   "ver"
  ],
  [
   "s",
   "ed"
  ],
  [
   "h",
   "ing"
  ],
  [
   "x",
   "es"
  ],
  [
   "o",
   "xes"
  ],
  [
   "s",
   "es"
  ],
  [
   "or",
   "ses"
  ],
  [
   " che",
   "ss"
  ],
  [
   "es",
   "e"
  ],
  [
   "bb",
   "its"
  ],
  [
   "ir",
   "ds"
  ],
  [
   " gre",
   "y"
  ],
  [
   " che",
   "ese"
  ],
  [
   " t",
   "urtles"
  ],
  [
   "r",
   "ats"
  ],
  [
   "ong",
   "rats"
  ],
  [
   "ay",
   "y"
  ],
  [
   " c",
   "ongrats"
  ],
  [
   " f",
   "ro"
  ],
  [
   " h",
   "ad"
  ],
  [
   " f",
   "oxes"
  ],
  [
   " h",
   "orses"
  ],
  [
   "a",
   "g"
  ],
  [
   " do",
   "gs"
  ],
  [
   "lo",
   "se"
  ],
  [
   " c",
   "lose"
  ],
  [
   " c",
   "ats"
  ],
  [
   "our",
   "se"
  ],
  [
   " c",
   "ourse"
  ],
  [
   "r",
   "ot"
  ],
  [
   "not",
   "hing"
  ],
  [
   "a",
   "bbits"
  ],
  [
   " r",
   "abbits"
  ],
  [
   " b",
   "irds"
  ],
  [
   "cra",
   "bb"
  ],
  [
   "crabb",
   "le"
  ],
  [
   "ine",
   "cra"
  ],
  [
   "inecra",
   "f"
  ],
  [
   "inecraf",
   "t"
  ],
  [
   "oot",
   "b"
  ],
  [
   "ootb",
   "all"
  ],
  [
   "tr",
   "is"
  ],
  [
   "e",
   "tris"
  ],
  [
   "lo",
   "ve"
  ],
  [
   " co",
   "ld"
  ],
  [
   "s",
   "ure"
  ],
  [
   "l",
   "ue"
  ],
  [
   " c",
   "hi"
  ],
  [
   "g",
   "o"
  ],
  [
   " rain",
   "y"
  ],
  [
   "oo",
   "k"
  ],
  [
   " l",
   "ook"
  ],
  [
   " fro",
   "m"
  ],
  [
   " S",
   "crabble"
  ],
  [
   " guess",
   "ing"
  ],
  [
   " car",
   "ds"
  ],
  [
   "i",
   "l"
  ],
  [
   "ow",
   "n"
  ],
  [
   " T",
   "etris"
  ],
  [
   "you",
   "r"
  ],
  [
   "og",
   "g"
  ],
  [
   "ogg",
   "y"
  ],
  [
   " f",
   "oggy"
  ],
  [
   " M",
   "inecraft"
  ],
  [
   "un",
   "n"
  ],
  [
   "unn",
   "y"
  ],
  [
   " s",
   "unny"
  ],
  [
   " f",
   "ootball"
  ],
  [
   " s",
   "and"
  ],
  [
   " bor",
   "ed"
  ],
  [
   "s",
   "id"
  ],
  [
   "sid",
   "e"
  ],
  [
   " out",
   "side"
  ],
  [
   " wind",
   "y"
  ],
  [
   " joke",
   "s"
  ],
  [
   "m",
   "ake"
  ],
  [
   "a",
   "ugh"
  ],
  [
   " l",
   "augh"
  ],
  [
   "m",
   "ar"
  ],
  [
   "ould",
   "n"
  ],
  [
   "c",
   "ouldn"
  ],
  [
   " c",
   "lue"
  ],
  [
   " t",
   "ag"
  ],
  [
   "t",
   "ain"
  ],
  [
   "er",
   "tain"
  ],
  [
   "ent",
   "ertain"
  ],
  [
   " bu",
   "ll"
  ],
  [
   "p",
   "s"
  ],
  [
   "u",
   "st"
  ],
  [
   "it",
   "al"
  ],
  [
   "h",
   "ad"
  ],
  [
   "ap",
   "ital"
  ],
  [
   " c",
   "apital"
  ],
  [
   " C",
   "had"
  ],
  [
   " any",
   "way"
  ],
  [
   " long",
   "er"
  ],
  [
   "i",
   "f"
  ],
  [
   " an",
   "other"
  ],
  [
   "an",
   "k"
  ],
  [
   "an",
   "ce"
  ],
  [
   "al",
   "ance"
  ],
  [
   " b",
   "ank"
  ],
  [
   " b",
   "alance"
  ],
  [
   "to",
   "m"
  ],
  [
   "re",
   "d"
  ],
  [
   "u",
   "h"
  ],
  [
   "h",
   "uh"
  ],
  [
   " ne",
   "at"
  ],
  [
   " l",
   "ast"
  ],
  [
   "ul",
   "at"
  ],
  [
   "ulat",
   "ion"
  ],
  [
   "p",
   "ulation"
  ],
  [
   "o",
   "pulation"
  ],
  [
   "er",
   "u"
  ],
  [
   "P",
   "eru"
  ],
  [
   " p",
   "opulation"
  ],
  [
   " ",
   "Peru"
  ],
  [
   "f",
   "ro"
  ],
  [
   "tom",
   "s"
  ],
  [
   " m",
   "any"
  ],
  [
   " g",
   "rain"
  ],
  [
   " a",
   "toms"
  ],
  [
   "l",
   "ine"
  ],
  [
   "id",
   "i"
  ],
  [
   "idi",
   "es"
  ],
  [
   "hi",
   "le"
  ],
  [
   " w",
   "hile"
  ],
  [
   " t",
   "idies"
  ],
  [
   " off",
   "line"
  ],
  [
   " b",
   "rain"
  ],
  [
   "b",
   "er"
  ],
  [
   "all",
   "s"
  ],
  [
   "ad",
   "e"
  ],
  [
   " go",
   "es"
  ],
  [
   " get",
   "s"
  ],
  [
   " f",
   "alls"
  ],
  [
   " d",
   "own"
  ],
  [
   " cool",
   "s"
  ],
  [
   "soun",
   "d"
  ],
  [
   "oun",
   "c"
  ],
  [
   "ounc",
   "es"
  ],
  [
   "ho",
   "es"
  ],
  [
   "c",
   "hoes"
  ],
  [
   " e",
   "choes"
  ],
  [
   " com",
   "es"
  ],
  [
   " b",
   "ounces"
  ],
  [
   "v",
   "ing"
  ],
  [
   "ss",
   "ure"
  ],
  [
   "re",
   "ssure"
  ],
  [
   " sp",
   "ot"
  ],
  [
   " p",
   "ressure"
  ],
  [
   " mo",
   "ving"
  ],
  [
   " l",
   "ow"
  ],
  [
   " h",
   "igh"
  ],
  [
   "z",
   "en"
  ],
  [
   "qu",
   "id"
  ],
  [
   "lo",
   "ating"
  ],
  [
   "fro",
   "zen"
  ],
  [
   " li",
   "quid"
  ],
  [
   " l",
   "ess"
  ],
  [
   " i",
   "ce"
  ],
  [
   " f",
   "loating"
  ],
  [
   " d",
   "ense"
  ],
  [
   "in",
   "t"
  ],
  [
   "qu",
   "are"
  ],
  [
   " s",
   "quare"
  ],
  [
   " r",
   "oot"
  ],
  [
   " than",
   "ks"
  ],
  [
   " m",
   "os"
  ],
  [
   "d",
   "ge"
  ],
  [
   "ro",
   "ps"
  ],
  [
   "r",
   "ough"
  ],
  [
   "ow",
   "s"
  ],
  [
   "l",
   "its"
  ],
  [
   "l",
   "ight"
  ],
  [
   "en",
   "ds"
  ],
  [
   "b",
   "ows"
  ],
  [
   " th",
   "rough"
  ],
  [
   " sp",
   "lits"
  ],
  [
   " rain",
   "bows"
  ],
  [
   " d",
   "rops"
  ],
  [
   " color",
   "s"
  ],
  [
   " b",
   "ends"
  ],
  [
   "ti",
   "red"
  ],
  [
   "h",
   "s"
  ],
  [
   " r",
   "o"
  ],
  [
   " p",
   "a"
  ],
  [
   " e",
   "at"
  ],
  [
   "s",
   "ame"
  ],
  [
   "ll",
   "ing"
  ],
  [
   "j",
   "ust"
  ],
  [
   " chi",
   "lling"
  ]
 ]
}