{
 "specials": [
  "<pad>",
  "<bos>",
  "<eos>",
  "<user>",
  "<assistant>",
  "<mem>",
  "<unk>"
 ],
 "lowercase": false,
 "alphabet": [
  " ",
  "!",
  "\"",
  "'",
  "(",
  ")",
  ",",
  "-",
  ".",
  "0",
  "1",
  "2",
  "3",
  "4",
  "5",
  "6",
  "7",
  "8",
  "9",
  ":",
  ";",
  "?",
  "A",
  "B",
  "C",
  "D",
  "E",
  "F",
  "G",
  "H",
  "I",
  "J",
  "K",
  "L",
  "M",
  "N",
  "O",
  "P",
  "Q",
  "R",
  "S",
  "T",
  "U",
  "V",
  "W",
  "X",
  "Y",
  "Z",
  "_",
  "a",
  "b",
  "c",
  "d",
  "e",
  "f",
  "g",
  "h",
  "i",
  "j",
  "k",
  "l",
  "m",
  "n",
  "o",
  "p",
  "q",
  "r",
  "s",
  "t",
  "u",
  "v",
  "w",
  "x",
  "y",
  "z",
  "—"
 ],
 "merges": [
  [
   " ",
   "t"
  ],
  [
   " ",
   "w"
  ],
  [
   " ",
   "a"
  ],
  [
   "i",
   "n"
  ],
  [
   "o",
   "u"
  ],
  [
   "h",
   "a"
  ],
  [
   "i",
   "t"
  ],
  [
   "ha",
   "t"
  ],
  [
   "o",
   "r"
  ],
  [
   "h",
   "e"
  ],
  [
   "in",
   "g"
  ],
  [
   " ",
   "b"
  ],
  [
   " ",
   "y"
  ],
  [
   " ",
   "g"
  ],
  [
   "l",
   "l"
  ],
  [
   " ",
   "s"
  ],
  [
   " ",
   "it"
  ],
  [
   "r",
   "e"
  ],
  [
   " y",
   "ou"
  ],
  [
   "o",
   "n"
  ],
  [
   " ",
   "d"
  ],
  [
   "m",
   "e"
  ],
  [
   " ",
   "f"
  ],
  [
   "e",
   "n"
  ],
  [
   "o",
   "w"
  ],
  [
   "o",
   "o"
  ],
  [
   " t",
   "o"
  ],
  [
   " ",
   "c"
  ],
  [
   " ",
   "I"
  ],
  [
   "a",
   "n"
  ],
  [
   "e",
   "s"
  ],
  [
   "a",
   "y"
  ],
  [
   "e",
   "r"
  ],
  [
   " w",
   "hat"
  ],
  [
   " t",
   "he"
  ],
  [
   "i",
   "s"
  ],
  [
   " d",
   "o"
  ],
  [
   " ",
   "l"
  ],
  [
   " ",
   "p"
  ],
  [
   "o",
   "t"
  ],
  [
   " b",
   "e"
  ],
  [
   "oo",
   "d"
  ],
  [
   "ou",
   "t"
  ],
  [
   " ",
   "m"
  ],
  [
   " ",
   "is"
  ],
  [
   " ",
   "h"
  ],
  [
   " a",
   "n"
  ],
  [
   "a",
   "r"
  ],
  [
   " ",
   "r"
  ],
  [
   "e",
   "d"
  ],
  [
   "a",
   "t"
  ],
  [
   "g",
   "h"
  ],
  [
   " ",
   "me"
  ],
  [
   " ",
   "n"
  ],
  [
   "v",
   "e"
  ],
  [
   "l",
   "d"
  ],
  [
   "i",
   "c"
  ],
  [
   "b",
   "out"
  ],
  [
   " ",
   "on"
  ],
  [
   " l",
   "i"
  ],
  [
   "w",
   "hat"
  ],
  [
   " f",
   "a"
  ],
  [
   " t",
   "hat"
  ],
  [
   " w",
   "e"
  ],
  [
   "a",
   "s"
  ],
  [
   "i",
   "d"
  ],
  [
   " a",
   "bout"
  ],
  [
   "it",
   "e"
  ],
  [
   " h",
   "ow"
  ],
  [
   "v",
   "or"
  ],
  [
   "vor",
   "ite"
  ],
  [
   " fa",
   "vorite"
  ],
  [
   "en",
   "t"
  ],
  [
   " ",
   "ha"
  ],
  [
   "a",
   "me"
  ],
  [
   "an",
   "t"
  ],
  [
   " g",
   "ood"
  ],
  [
   "t",
   "h"
  ],
  [
   "t",
   "t"
  ],
  [
   " li",
   "k"
  ],
  [
   " ",
   "—"
  ],
  [
   "i",
   "gh"
  ],
  [
   " w",
   "ant"
  ],
  [
   " on",
   "e"
  ],
  [
   "l",
   "e"
  ],
  [
   "igh",
   "t"
  ],
  [
   "a",
   "ll"
  ],
  [
   " ",
   "o"
  ],
  [
   "o",
   "l"
  ],
  [
   " g",
   "o"
  ],
  [
   " t",
   "h"
  ],
  [
   "ic",
   "e"
  ],
  [
   "a",
   "c"
  ],
  [
   " w",
   "as"
  ],
  [
   "ou",
   "ld"
  ],
  [
   "a",
   "l"
  ],
  [
   " o",
   "f"
  ],
  [
   "e",
   "ll"
  ],
  [
   "u",
   "n"
  ],
  [
   "a",
   "d"
  ],
  [
   " an",
   "d"
  ],
  [
   "on",
   "g"
  ],
  [
   " ",
   "in"
  ],
  [
   "in",
   "e"
  ],
  [
   " w",
   "ent"
  ],
  [
   "a",
   "k"
  ],
  [
   "a",
   "in"
  ],
  [
   " a",
   "s"
  ],
  [
   "t",
   "i"
  ],
  [
   "d",
   "ay"
  ],
  [
   "he",
   "re"
  ],
  [
   "th",
   "ing"
  ],
  [
   " an",
   "y"
  ],
  [
   " as",
   "k"
  ],
  [
   " ",
   "k"
  ],
  [
   " be",
   "en"
  ],
  [
   "u",
   "p"
  ],
  [
   " ",
   "or"
  ],
  [
   " w",
   "or"
  ],
  [
   " ",
   "T"
  ],
  [
   " a",
   "re"
  ],
  [
   "ol",
   "or"
  ],
  [
   "all",
   "y"
  ],
  [
   " s",
   "o"
  ],
  [
   " ",
   "e"
  ],
  [
   "n",
   "ice"
  ],
  [
   " b",
   "u"
  ],
  [
   "s",
   "e"
  ],
  [
   "he",
   "r"
  ],
  [
   "v",
   "er"
  ],
  [
   " do",
   "ing"
  ],
  [
   "n",
   "ame"
  ],
  [
   " m",
   "y"
  ],
  [
   " ",
   "up"
  ],
  [
   " you",
   "r"
  ],
  [
   " ",
   "S"
  ],
  [
   " ha",
   "ve"
  ],
  [
   " r",
   "ight"
  ],
  [
   "r",
   "o"
  ],
  [
   "d",
   "s"
  ],
  [
   "it",
   "h"
  ],
  [
   " t",
   "ell"
  ],
  [
   " ",
   "re"
  ],
  [
   "d",
   "o"
  ],
  [
   "u",
   "r"
  ],
  [
   "tt",
   "er"
  ],
  [
   " be",
   "tter"
  ],
  [
   "or",
   "e"
  ],
  [
   " m",
   "ore"
  ],
  [
   " lik",
   "e"
  ],
  [
   " g",
   "re"
  ],
  [
   "m",
   "y"
  ],
  [
   " lik",
   "es"
  ],
  [
   "t",
   "o"
  ],
  [
   "l",
   "y"
  ],
  [
   "a",
   "h"
  ],
  [
   "h",
   "i"
  ],
  [
   "u",
   "es"
  ],
  [
   " p",
   "l"
  ],
  [
   "in",
   "d"
  ],
  [
   "a",
   "id"
  ],
  [
   " s",
   "aid"
  ],
  [
   "ic",
   "k"
  ],
  [
   "in",
   "k"
  ],
  [
   " th",
   "ink"
  ],
  [
   " ",
   "out"
  ],
  [
   "n",
   "ow"
  ],
  [
   " k",
   "now"
  ],
  [
   "t",
   "hat"
  ],
  [
   "n",
   "ot"
  ],
  [
   "r",
   "a"
  ],
  [
   "c",
   "t"
  ],
  [
   " f",
   "e"
  ],
  [
   "r",
   "y"
  ],
  [
   " g",
   "e"
  ],
  [
   "i",
   "r"
  ],
  [
   " n",
   "ot"
  ],
  [
   " c",
   "o"
  ],
  [
   " w",
   "ith"
  ],
  [
   " n",
   "e"
  ],
  [
   "i",
   "ll"
  ],
  [
   " w",
   "ill"
  ],
  [
   " wor",
   "k"
  ],
  [
   "oo",
   "l"
  ],
  [
   "a",
   "a"
  ],
  [
   " s",
   "p"
  ],
  [
   "h",
   "y"
  ],
  [
   "y",
   "ou"
  ],
  [
   " any",
   "thing"
  ],
  [
   "n",
   "o"
  ],
  [
   "y",
   "e"
  ],
  [
   " bu",
   "t"
  ],
  [
   "ou",
   "n"
  ],
  [
   " we",
   "ll"
  ],
  [
   "ver",
   "y"
  ],
  [
   " in",
   "to"
  ],
  [
   " a",
   "ll"
  ],
  [
   "ak",
   "es"
  ],
  [
   "at",
   "her"
  ],
  [
   " pl",
   "ay"
  ],
  [
   " d",
   "ay"
  ],
  [
   "he",
   "y"
  ],
  [
   "m",
   "ine"
  ],
  [
   " c",
   "ould"
  ],
  [
   "h",
   "o"
  ],
  [
   "f",
   "ood"
  ],
  [
   "c",
   "olor"
  ],
  [
   "al",
   "k"
  ],
  [
   " t",
   "alk"
  ],
  [
   "ct",
   "u"
  ],
  [
   " a",
   "ctu"
  ],
  [
   "a",
   "m"
  ],
  [
   " I",
   "t"
  ],
  [
   "ar",
   "d"
  ],
  [
   "l",
   "p"
  ],
  [
   "he",
   "lp"
  ],
  [
   " ",
   "here"
  ],
  [
   "e",
   "k"
  ],
  [
   " we",
   "ek"
  ],
  [
   "o",
   "s"
  ],
  [
   "ou",
   "gh"
  ],
  [
   " gre",
   "at"
  ],
  [
   "o",
   "k"
  ],
  [
   " y",
   "e"
  ],
  [
   "re",
   "ally"
  ],
  [
   "g",
   "ot"
  ],
  [
   " p",
   "ar"
  ],
  [
   "x",
   "t"
  ],
  [
   " ne",
   "xt"
  ],
  [
   "ard",
   "en"
  ],
  [
   " g",
   "ot"
  ],
  [
   " f",
   "un"
  ],
  [
   "p",
   "p"
  ],
  [
   "pp",
   "en"
  ],
  [
   " ha",
   "ppen"
  ],
  [
   "m",
   "or"
  ],
  [
   " g",
   "arden"
  ],
  [
   " l",
   "ong"
  ],
  [
   "ac",
   "k"
  ],
  [
   " b",
   "or"
  ],
  [
   "W",
   "e"
  ],
  [
   "at",
   "er"
  ],
  [
   "tt",
   "ing"
  ],
  [
   " ge",
   "tting"
  ],
  [
   " to",
   "day"
  ],
  [
   " s",
   "t"
  ],
  [
   "a",
   "ir"
  ],
  [
   " ask",
   "ed"
  ],
  [
   " f",
   "or"
  ],
  [
   "o",
   "h"
  ],
  [
   "id",
   "e"
  ],
  [
   " s",
   "u"
  ],
  [
   "an",
   "y"
  ],
  [
   " r",
   "un"
  ],
  [
   "in",
   "n"
  ],
  [
   " to",
   "ld"
  ],
  [
   "t",
   "ly"
  ],
  [
   "s",
   "oun"
  ],
  [
   "g",
   "ain"
  ],
  [
   " a",
   "gain"
  ],
  [
   "h",
   "ow"
  ],
  [
   "en",
   "se"
  ],
  [
   "ues",
   "s"
  ],
  [
   " your",
   "s"
  ],
  [
   "i",
   "me"
  ],
  [
   " t",
   "ime"
  ],
  [
   " c",
   "olor"
  ],
  [
   "k",
   "ind"
  ],
  [
   " ",
   "M"
  ],
  [
   "oo",
   "h"
  ],
  [
   "g",
   "ood"
  ],
  [
   "t",
   "er"
  ],
  [
   " b",
   "l"
  ],
  [
   " co",
   "d"
  ],
  [
   "i",
   "e"
  ],
  [
   "z",
   "z"
  ],
  [
   "ti",
   "on"
  ],
  [
   "ha",
   "n"
  ],
  [
   " t",
   "han"
  ],
  [
   "r",
   "ong"
  ],
  [
   " w",
   "rong"
  ],
  [
   " fe",
   "w"
  ],
  [
   " ",
   "H"
  ],
  [
   "ro",
   "b"
  ],
  [
   "i",
   "f"
  ],
  [
   "i",
   "m"
  ],
  [
   "w",
   "hy"
  ],
  [
   " th",
   "re"
  ],
  [
   " ",
   "help"
  ],
  [
   " T",
   "he"
  ],
  [
   " d",
   "on"
  ],
  [
   "a",
   "b"
  ],
  [
   " happen",
   "ed"
  ],
  [
   "f",
   "air"
  ],
  [
   "l",
   "ad"
  ],
  [
   "g",
   "lad"
  ],
  [
   " work",
   "ed"
  ],
  [
   " w",
   "on"
  ],
  [
   "i",
   "on"
  ],
  [
   " b",
   "ad"
  ],
  [
   " ",
   "J"
  ],
  [
   "r",
   "ight"
  ],
  [
   " actu",
   "ally"
  ],
  [
   " ",
   "A"
  ],
  [
   " bor",
   "ing"
  ],
  [
   "o",
   "g"
  ],
  [
   "w",
   "ay"
  ],
  [
   " ",
   "R"
  ],
  [
   "me",
   "thing"
  ],
  [
   " so",
   "mething"
  ],
  [
   "r",
   "ow"
  ],
  [
   "ti",
   "r"
  ],
  [
   "tir",
   "ing"
  ],
  [
   " sp",
   "ent"
  ],
  [
   "or",
   "ry"
  ],
  [
   " s",
   "orry"
  ],
  [
   "ide",
   "a"
  ],
  [
   " ",
   "idea"
  ],
  [
   "soun",
   "ds"
  ],
  [
   "m",
   "akes"
  ],
  [
   " wor",
   "th"
  ],
  [
   " s",
   "ense"
  ],
  [
   "an",
   "c"
  ],
  [
   "as",
   "t"
  ],
  [
   "oo",
   "k"
  ],
  [
   "t",
   "r"
  ],
  [
   "g",
   "e"
  ],
  [
   "ou",
   "r"
  ],
  [
   "n",
   "ing"
  ],
  [
   "e",
   "l"
  ],
  [
   " fe",
   "el"
  ],
  [
   "c",
   "ool"
  ],
  [
   " ",
   "en"
  ],
  [
   " ye",
   "t"
  ],
  [
   " ",
   "if"
  ],
  [
   "u",
   "e"
  ],
  [
   "u",
   "l"
  ],
  [
   "ot",
   "her"
  ],
  [
   " li",
   "ve"
  ],
  [
   " we",
   "ather"
  ],
  [
   "b",
   "r"
  ],
  [
   " ",
   "We"
  ],
  [
   "q",
   "u"
  ],
  [
   "at",
   "s"
  ],
  [
   "mor",
   "row"
  ],
  [
   " to",
   "morrow"
  ],
  [
   "aa",
   "aa"
  ],
  [
   " w",
   "ould"
  ],
  [
   "ok",
   "ay"
  ],
  [
   " e",
   "very"
  ],
  [
   " ",
   "v"
  ],
  [
   "w",
   "ould"
  ],
  [
   " r",
   "ather"
  ],
  [
   " re",
   "ad"
  ],
  [
   "it",
   "s"
  ],
  [
   " ha",
   "v"
  ],
  [
   " g",
   "ame"
  ],
  [
   " g",
   "uess"
  ],
  [
   "k",
   "e"
  ],
  [
   "u",
   "gh"
  ],
  [
   " a",
   "w"
  ],
  [
   "ak",
   "e"
  ],
  [
   "l",
   "o"
  ],
  [
   "me",
   "m"
  ],
  [
   "mem",
   "b"
  ],
  [
   "memb",
   "er"
  ],
  [
   " re",
   "member"
  ],
  [
   "an",
   "ge"
  ],
  [
   "es",
   "s"
  ],
  [
   "k",
   "s"
  ],
  [
   "an",
   "d"
  ],
  [
   "v",
   "ed"
  ],
  [
   " s",
   "m"
  ],
  [
   "s",
   "hi"
  ],
  [
   "i",
   "x"
  ],
  [
   "e",
   "y"
  ],
  [
   "ame",
   "n"
  ],
  [
   " r",
   "ain"
  ],
  [
   " ",
   "C"
  ],
  [
   "j",
   "o"
  ],
  [
   " g",
   "u"
  ],
  [
   "zz",
   "a"
  ],
  [
   "i",
   "zza"
  ],
  [
   " t",
   "e"
  ],
  [
   "anc",
   "akes"
  ],
  [
   "ast",
   "a"
  ],
  [
   "ra",
   "p"
  ],
  [
   "rap",
   "hy"
  ],
  [
   "ot",
   "og"
  ],
  [
   "otog",
   "raphy"
  ],
  [
   "h",
   "otography"
  ],
  [
   "ow",
   "n"
  ],
  [
   " n",
   "ow"
  ],
  [
   "ac",
   "os"
  ],
  [
   "tt",
   "y"
  ],
  [
   "re",
   "tty"
  ],
  [
   "p",
   "retty"
  ],
  [
   " do",
   "g"
  ],
  [
   "ou",
   "p"
  ],
  [
   " or",
   "ange"
  ],
  [
   " su",
   "shi"
  ],
  [
   "a",
   "re"
  ],
  [
   "ti",
   "ll"
  ],
  [
   "ur",
   "ry"
  ],
  [
   "le",
   "e"
  ],
  [
   "lee",
   "p"
  ],
  [
   " s",
   "leep"
  ],
  [
   " ge",
   "t"
  ],
  [
   "ye",
   "p"
  ],
  [
   "ye",
   "ah"
  ],
  [
   "ow",
   "ed"
  ],
  [
   " r",
   "amen"
  ],
  [
   " all",
   "owed"
  ],
  [
   "ak",
   "ing"
  ],
  [
   " w",
   "ater"
  ],
  [
   " r",
   "ough"
  ],
  [
   "tr",
   "ac"
  ],
  [
   "trac",
   "tion"
  ],
  [
   "is",
   "traction"
  ],
  [
   " v",
   "ent"
  ],
  [
   " d",
   "istraction"
  ],
  [
   "c",
   "h"
  ],
  [
   "h",
   "or"
  ],
  [
   " p",
   "asta"
  ],
  [
   " p",
   "ancakes"
  ],
  [
   " p",
   "izza"
  ],
  [
   "ook",
   "ing"
  ],
  [
   " t",
   "acos"
  ],
  [
   "ol",
   "our"
  ],
  [
   " c",
   "olour"
  ],
  [
   "w",
   "im"
  ],
  [
   "wim",
   "m"
  ],
  [
   "wimm",
   "ing"
  ],
  [
   " b",
   "i"
  ],
  [
   "w",
   "ing"
  ],
  [
   "ra",
   "wing"
  ],
  [
   " s",
   "oup"
  ],
  [
   "u",
   "re"
  ],
  [
   " f",
   "ood"
  ],
  [
   " p",
   "hotography"
  ],
  [
   " b",
   "ack"
  ],
  [
   "it",
   "ar"
  ],
  [
   " st",
   "ay"
  ],
  [
   "th",
   "s"
  ],
  [
   "on",
   "ths"
  ],
  [
   " m",
   "onths"
  ],
  [
   " ha",
   "s"
  ],
  [
   " a",
   "t"
  ],
  [
   " the",
   "re"
  ],
  [
   " c",
   "urry"
  ],
  [
   " read",
   "ing"
  ],
  [
   "on",
   "es"
  ],
  [
   "ones",
   "tly"
  ],
  [
   " h",
   "onestly"
  ],
  [
   " garden",
   "ing"
  ],
  [
   " thre",
   "e"
  ],
  [
   "f",
   "ul"
  ],
  [
   " n",
   "ame"
  ],
  [
   " aw",
   "ful"
  ],
  [
   " of",
   "f"
  ],
  [
   " run",
   "ning"
  ],
  [
   " go",
   "ing"
  ],
  [
   "ong",
   "s"
  ],
  [
   "l",
   "ongs"
  ],
  [
   " m",
   "ine"
  ],
  [
   " be",
   "longs"
  ],
  [
   " ",
   "other"
  ],
  [
   " cod",
   "ing"
  ],
  [
   " w",
   "here"
  ],
  [
   " b",
   "aking"
  ],
  [
   "hor",
   "t"
  ],
  [
   " s",
   "hort"
  ],
  [
   "inn",
   "er"
  ],
  [
   "f",
   "ter"
  ],
  [
   " play",
   "ed"
  ],
  [
   " d",
   "inner"
  ],
  [
   " a",
   "fter"
  ],
  [
   " s",
   "wimming"
  ],
  [
   " c",
   "ooking"
  ],
  [
   " d",
   "rawing"
  ],
  [
   "ick",
   "ing"
  ],
  [
   " st",
   "icking"
  ],
  [
   "ur",
   "p"
  ],
  [
   "urp",
   "le"
  ],
  [
   " sm",
   "all"
  ],
  [
   "ues",
   "day"
  ],
  [
   " T",
   "uesday"
  ],
  [
   "am",
   "ie"
  ],
  [
   " H",
   "e"
  ],
  [
   "or",
   "d"
  ],
  [
   "ord",
   "an"
  ],
  [
   "at",
   "ing"
  ],
  [
   "r",
   "ick"
  ],
  [
   "rick",
   "y"
  ],
  [
   " t",
   "ricky"
  ],
  [
   " par",
   "t"
  ],
  [
   " f",
   "ar"
  ],
  [
   " gu",
   "itar"
  ],
  [
   "u",
   "inn"
  ],
  [
   "Q",
   "uinn"
  ],
  [
   "ell",
   "ow"
  ],
  [
   "c",
   "ra"
  ],
  [
   "le",
   "x"
  ],
  [
   "as",
   "ey"
  ],
  [
   "ow",
   "an"
  ],
  [
   "le",
   "y"
  ],
  [
   "i",
   "ley"
  ],
  [
   "y",
   "ing"
  ],
  [
   "jo",
   "ying"
  ],
  [
   " en",
   "joying"
  ],
  [
   "v",
   "on"
  ],
  [
   "e",
   "von"
  ],
  [
   "D",
   "evon"
  ],
  [
   "os",
   "t"
  ],
  [
   " l",
   "ost"
  ],
  [
   "y",
   "l"
  ],
  [
   "yl",
   "er"
  ],
  [
   "k",
   "yler"
  ],
  [
   " e",
   "x"
  ],
  [
   "ur",
   "t"
  ],
  [
   "urt",
   "l"
  ],
  [
   "urtl",
   "es"
  ],
  [
   "x",
   "es"
  ],
  [
   "o",
   "xes"
  ],
  [
   "or",
   "g"
  ],
  [
   "org",
   "an"
  ],
  [
   " bl",
   "ack"
  ],
  [
   "b",
   "its"
  ],
  [
   "p",
   "er"
  ],
  [
   "ar",
   "per"
  ],
  [
   "ir",
   "ds"
  ],
  [
   "s",
   "on"
  ],
  [
   "r",
   "son"
  ],
  [
   "me",
   "rson"
  ],
  [
   "E",
   "merson"
  ],
  [
   " te",
   "al"
  ],
  [
   "l",
   "or"
  ],
  [
   "ay",
   "lor"
  ],
  [
   " c",
   "he"
  ],
  [
   "j",
   "ok"
  ],
  [
   " ",
   "jok"
  ],
  [
   " re",
   "d"
  ],
  [
   " gre",
   "en"
  ],
  [
   " p",
   "urple"
  ],
  [
   "rob",
   "le"
  ],
  [
   "roble",
   "m"
  ],
  [
   " p",
   "roblem"
  ],
  [
   " actu",
   "al"
  ],
  [
   " bl",
   "ue"
  ],
  [
   " y",
   "ellow"
  ],
  [
   "s",
   "es"
  ],
  [
   "s",
   "s"
  ],
  [
   "s",
   "ol"
  ],
  [
   "sol",
   "id"
  ],
  [
   "ho",
   "ice"
  ],
  [
   " c",
   "hoice"
  ],
  [
   "way",
   "s"
  ],
  [
   "l",
   "ways"
  ],
  [
   " a",
   "lways"
  ],
  [
   "o",
   "v"
  ],
  [
   "se",
   "e"
  ],
  [
   "s",
   "till"
  ],
  [
   " a",
   "m"
  ],
  [
   " n",
   "o"
  ],
  [
   " e",
   "ar"
  ],
  [
   "ess",
   "ay"
  ],
  [
   " ",
   "essay"
  ],
  [
   " n",
   "ice"
  ],
  [
   "c",
   "ks"
  ],
  [
   " su",
   "cks"
  ],
  [
   " f",
   "ine"
  ],
  [
   "rob",
   "ab"
  ],
  [
   "robab",
   "ly"
  ],
  [
   "p",
   "robably"
  ],
  [
   "oo",
   "t"
  ],
  [
   "oo",
   "f"
  ],
  [
   " p",
   "ick"
  ],
  [
   " s",
   "ay"
  ],
  [
   "o",
   "ld"
  ],
  [
   "old",
   "ing"
  ],
  [
   " h",
   "olding"
  ],
  [
   " f",
   "oxes"
  ],
  [
   " t",
   "urtles"
  ],
  [
   "ar",
   "m"
  ],
  [
   " w",
   "arm"
  ],
  [
   " o",
   "k"
  ],
  [
   " J",
   "amie"
  ],
  [
   "ab",
   "bits"
  ],
  [
   " r",
   "abbits"
  ],
  [
   " d",
   "id"
  ],
  [
   "y",
   "ed"
  ],
  [
   "no",
   "yed"
  ],
  [
   " an",
   "noyed"
  ],
  [
   " c",
   "all"
  ],
  [
   " ",
   "Quinn"
  ],
  [
   " S",
   "am"
  ],
  [
   " b",
   "irds"
  ],
  [
   "ro",
   "m"
  ],
  [
   " f",
   "rom"
  ],
  [
   "ver",
   "s"
  ],
  [
   "vers",
   "ion"
  ],
  [
   " ",
   "version"
  ],
  [
   " w",
   "ind"
  ],
  [
   " c",
   "ats"
  ],
  [
   " J",
   "ordan"
  ],
  [
   " C",
   "asey"
  ],
  [
   " A",
   "lex"
  ],
  [
   " R",
   "owan"
  ],
  [
   "or",
   "ses"
  ],
  [
   " h",
   "orses"
  ],
  [
   " A",
   "very"
  ],
  [
   " hav",
   "ing"
  ],
  [
   "br",
   "ar"
  ],
  [
   "brar",
   "y"
  ],
  [
   " li",
   "brary"
  ],
  [
   " R",
   "iley"
  ],
  [
   " bi",
   "ke"
  ],
  [
   " c",
   "ool"
  ],
  [
   " cod",
   "e"
  ],
  [
   " ",
   "Devon"
  ],
  [
   " S",
   "kyler"
  ],
  [
   " t",
   "own"
  ],
  [
   " dog",
   "s"
  ],
  [
   " do",
   "es"
  ],
  [
   "ll",
   "o"
  ],
  [
   "he",
   "llo"
  ],
  [
   " H",
   "arper"
  ],
  [
   ".",
   "."
  ],
  [
   " T",
   "aylor"
  ],
  [
   " M",
   "organ"
  ],
  [
   " ",
   "Emerson"
  ],
  [
   "t",
   "ell"
  ],
  [
   " par",
   "k"
  ],
  [
   "r",
   "ain"
  ],
  [
   "ac",
   "h"
  ],
  [
   " be",
   "ach"
  ],
  [
   "ood",
   "s"
  ],
  [
   " w",
   "oods"
  ],
  [
   "x",
   "p"
  ],
  [
   "xp",
   "l"
  ],
  [
   "xpl",
   "ain"
  ],
  [
   "e",
   "xplain"
  ],
  [
   "b",
   "le"
  ],
  [
   "ch",
   "ool"
  ],
  [
   " s",
   "chool"
  ],
  [
   "a",
   "bout"
  ],
  [
   " ye",
   "ar"
  ],
  [
   "s",
   "in"
  ],
  [
   "sin",
   "c"
  ],
  [
   "sinc",
   "e"
  ],
  [
   " k",
   "id"
  ],
  [
   " week",
   "s"
  ],
  [
   " T",
   "here"
  ],
  [
   " ",
   "'"
  ],
  [
   "i",
   "ve"
  ],
  [
   "f",
   "ix"
  ],
  [
   " g",
   "ive"
  ],
  [
   " b",
   "it"
  ],
  [
   "w",
   "ith"
  ],
  [
   " thre",
   "ad"
  ],
  [
   "I",
   "t"
  ],
  [
   " co",
   "me"
  ],
  [
   " ",
   "1"
  ],
  [
   " I",
   "f"
  ],
  [
   "e",
   "e"
  ],
  [
   " s",
   "ee"
  ],
  [
   "ues",
   "tion"
  ],
  [
   "q",
   "uestion"
  ],
  [
   " ",
   "question"
  ],
  [
   "ac",
   "tly"
  ],
  [
   " ex",
   "actly"
  ],
  [
   " c",
   "ar"
  ],
  [
   "w",
   "ater"
  ],
  [
   " ",
   "8"
  ],
  [
   " out",
   "s"
  ],
  [
   "im",
   "al"
  ],
  [
   " an",
   "imal"
  ],
  [
   " S",
   "he"
  ],
  [
   "w",
   "ant"
  ],
  [
   "qu",
   "ick"
  ],
  [
   " ",
   "quick"
  ],
  [
   "w",
   "ho"
  ],
  [
   "on",
   "day"
  ],
  [
   " M",
   "onday"
  ],
  [
   "r",
   "id"
  ],
  [
   "rid",
   "ay"
  ],
  [
   "F",
   "riday"
  ],
  [
   " ",
   "Friday"
  ],
  [
   "g",
   "uess"
  ],
  [
   "es",
   "er"
  ],
  [
   "eser",
   "ved"
  ],
  [
   "d",
   "eserved"
  ],
  [
   "ur",
   "day"
  ],
  [
   "at",
   "urday"
  ],
  [
   " S",
   "aturday"
  ],
  [
   "zz",
   "ing"
  ],
  [
   " bu",
   "zzing"
  ],
  [
   "ar",
   "k"
  ],
  [
   " m",
   "ark"
  ],
  [
   "re",
   "l"
  ],
  [
   "rel",
   "ie"
  ],
  [
   "relie",
   "ved"
  ],
  [
   "n",
   "ed"
  ],
  [
   "le",
   "br"
  ],
  [
   "lebr",
   "ating"
  ],
  [
   "e",
   "lebrating"
  ],
  [
   " ear",
   "ned"
  ],
  [
   " c",
   "elebrating"
  ],
  [
   "b",
   "ye"
  ],
  [
   "un",
   "day"
  ],
  [
   " S",
   "unday"
  ],
  [
   "n",
   "ight"
  ],
  [
   "u",
   "s"
  ],
  [
   "got",
   "c"
  ],
  [
   "gotc",
   "ha"
  ],
  [
   "s",
   "h"
  ],
  [
   "sh",
   "ould"
  ],
  [
   " en",
   "ough"
  ],
  [
   "aaaa",
   "aaaa"
  ],
  [
   "c",
   "an"
  ],
  [
   " c",
   "ake"
  ],
  [
   " pl",
   "an"
  ],
  [
   "s",
   "ed"
  ],
  [
   " m",
   "ind"
  ],
  [
   "l",
   "ue"
  ],
  [
   " t",
   "ry"
  ],
  [
   " f",
   "ix"
  ],
  [
   " c",
   "an"
  ],
  [
   " f",
   "in"
  ],
  [
   " ne",
   "ver"
  ],
  [
   "ing",
   "s"
  ],
  [
   "a",
   "g"
  ],
  [
   " ",
   "very"
  ],
  [
   " hav",
   "en"
  ],
  [
   "ov",
   "a"
  ],
  [
   "N",
   "ova"
  ],
  [
   "r",
   "ats"
  ],
  [
   "ong",
   "rats"
  ],
  [
   "ay",
   "y"
  ],
  [
   " c",
   "ongrats"
  ],
  [
   "ine",
   "cra"
  ],
  [
   "inecra",
   "f"
  ],
  [
   "inecraf",
   "t"
  ],
  [
   "cra",
   "b"
  ],
  [
   "crab",
   "ble"
  ],
  [
   "oot",
   "b"
  ],
  [
   "ootb",
   "all"
  ],
  [
   "l",
   "se"
  ],
  [
   " e",
   "lse"
  ],
  [
   " ha",
   "d"
  ],
  [
   " che",
   "ss"
  ],
  [
   " jok",
   "e"
  ],
  [
   "re",
   "d"
  ],
  [
   " l",
   "ook"
  ],
  [
   "g",
   "o"
  ],
  [
   " the",
   "n"
  ],
  [
   " t",
   "ag"
  ],
  [
   " bor",
   "ed"
  ],
  [
   "tt",
   "ent"
  ],
  [
   "ttent",
   "ion"
  ],
  [
   " p",
   "ay"
  ],
  [
   " a",
   "ttention"
  ],
  [
   "p",
   "e"
  ],
  [
   "no",
   "pe"
  ],
  [
   " c",
   "lue"
  ],
  [
   " M",
   "inecraft"
  ],
  [
   "r",
   "ot"
  ],
  [
   "es",
   "e"
  ],
  [
   " f",
   "ootball"
  ],
  [
   " che",
   "ese"
  ],
  [
   "lo",
   "se"
  ],
  [
   " c",
   "lose"
  ],
  [
   " w",
   "ho"
  ],
  [
   "tr",
   "is"
  ],
  [
   "e",
   "tris"
  ],
  [
   "lo",
   "ve"
  ],
  [
   "not",
   "h"
  ],
  [
   "noth",
   "ing"
  ],
  [
   " jok",
   "es"
  ],
  [
   " rain",
   "y"
  ],
  [
   " S",
   "crabble"
  ],
  [
   " gre",
   "y"
  ],
  [
   " bu",
   "ll"
  ],
  [
   " car",
   "ds"
  ],
  [
   " co",
   "ld"
  ],
  [
   "our",
   "se"
  ],
  [
   "o",
   "f"
  ],
  [
   " c",
   "ourse"
  ],
  [
   "s",
   "ure"
  ],
  [
   "og",
   "g"
  ],
  [
   "ogg",
   "y"
  ],
  [
   " outs",
   "ide"
  ],
  [
   " f",
   "oggy"
  ],
  [
   " any",
   "way"
  ],
  [
   "m",
   "ake"
  ],
  [
   "a",
   "ugh"
  ],
  [
   " l",
   "augh"
  ],
  [
   " wind",
   "y"
  ],
  [
   "t",
   "ain"
  ],
  [
   "er",
   "tain"
  ],
  [
   "ent",
   "ertain"
  ],
  [
   "ould",
   "n"
  ],
  [
   "c",
   "ouldn"
  ],
  [
   " T",
   "etris"
  ],
  [
   " guess",
   "ing"
  ],
  [
   "to",
   "ld"
  ],
  [
   "un",
   "n"
  ],
  [
   "unn",
   "y"
  ],
  [
   " s",
   "unny"
  ],
  [
   "u",
   "h"
  ],
  [
   "h",
   "uh"
  ],
  [
   " ne",
   "at"
  ],
  [
   "ss",
   "ure"
  ],
  [
   "re",
   "ssure"
  ],
  [
   "p",
   "it"
  ],
  [
   "pit",
   "al"
  ],
  [
   "ov",
   "ing"
  ],
  [
   "ha",
   "d"
  ],
  [
   "a",
   "pital"
  ],
  [
   " sp",
   "ot"
  ],
  [
   " p",
   "ressure"
  ],
  [
   " m",
   "oving"
  ],
  [
   " l",
   "ow"
  ],
  [
   " h",
   "igh"
  ],
  [
   " c",
   "apital"
  ],
  [
   " C",
   "had"
  ],
  [
   "mor",
   "ning"
  ],
  [
   " long",
   "er"
  ],
  [
   " an",
   "other"
  ],
  [
   "to",
   "m"
  ],
  [
   "tom",
   "s"
  ],
  [
   " s",
   "and"
  ],
  [
   " m",
   "any"
  ],
  [
   " g",
   "rain"
  ],
  [
   " a",
   "toms"
  ],
  [
   "ti",
   "red"
  ],
  [
   "ll",
   "s"
  ],
  [
   " go",
   "es"
  ],
  [
   " get",
   "s"
  ],
  [
   " fa",
   "lls"
  ],
  [
   " d",
   "own"
  ],
  [
   " cool",
   "s"
  ],
  [
   " l",
   "ast"
  ],
  [
   "anc",
   "e"
  ],
  [
   "an",
   "k"
  ],
  [
   "al",
   "ance"
  ],
  [
   " b",
   "ank"
  ],
  [
   " b",
   "alance"
  ],
  [
   "soun",
   "d"
  ],
  [
   "oun",
   "c"
  ],
  [
   "ounc",
   "es"
  ],
  [
   "ho",
   "es"
  ],
  [
   "c",
   "hoes"
  ],
  [
   " e",
   "choes"
  ],
  [
   " come",
   "s"
  ],
  [
   " b",
   "ounces"
  ],
  [
   "y",
   "a"
  ],
  [
   "hi",
   "ya"
  ],
  [
   " call",
   "ed"
  ],
  [
   "ul",
   "at"
  ],
  [
   "ulat",
   "ion"
  ],
  [
   "p",
   "ulation"
  ],
  [
   "o",
   "pulation"
  ],
  [
   "er",
   "u"
  ],
  [
   "P",
   "eru"
  ],
  [
   " p",
   "opulation"
  ],
  [
   " ",
   "Peru"
  ],
  [
   "s",
   "up"
  ],
  [
   "ro",
   "p"
  ],
  [
   "rop",
   "s"
  ],
  [
   "r",
   "ough"
  ],
  [
   "ow",
   "s"
  ],
  [
   "l",
   "its"
  ],
  [
   "l",
   "ight"
  ],
  [
   "en",
   "ds"
  ],
  [
   "b",
   "ows"
  ],
  [
   " th",
   "rough"
  ],
  [
   " sp",
   "lits"
  ],
  [
   " rain",
   "bows"
  ],
  [
   " d",
   "rops"
  ],
  [
   " color",
   "s"
  ],
  [
   " b",
   "ends"
  ],
  [
   "you",
   "r"
  ],
  [
   "l",
   "ine"
  ],
  [
   "id",
   "i"
  ],
  [
   "idi",
   "es"
  ],
  [
   "hi",
   "le"
  ],
  [
   " w",
   "hile"
  ],
  [
   " t",
   "idies"
  ],
  [
   " off",
   "line"
  ],
  [
   " b",
   "rain"
  ],
  [
   "qu",
   "are"
  ],
  [
   " s",
   "quare"
  ],
  [
   " r",
   "oot"
  ],
  [
   " b",
   "and"
  ],
  [
   " than",
   "ks"
  ],
  [
   "is",
   "ter"
  ],
  [
   " s",
   "ister"
  ],
  [
   "w",
   "here"
  ],
  [
   "z",
   "en"
  ],
  [
   "ro",
   "zen"
  ],
  [
   "qu",
   "id"
  ],
  [
   "lo",
   "ating"
  ],
  [
   "f",
   "rozen"
  ],
  [
   " li",
   "quid"
  ],
  [
   " l",
   "ess"
  ],
  [
   " f",
   "loating"
  ],
  [
   " d",
   "ense"
  ],
  [
   " ",
   "ice"
  ],
  [
   "y",
   "o"
  ],
  [
   "s",
   "ame"
  ],
  [
   "u",
   "ch"
  ],
  [
   " m",
   "uch"
  ],
  [
   "us",
   "t"
  ],
  [
   "ll",
   "ing"
  ],
  [
   "j",
   "ust"
  ],
  [
   "hi",
   "lling"
  ],
  [
   " c",
   "hilling"
  ],
  [
   "T",
   "he"
  ],
  [
   "T",
   "here"
  ],
  [
   "I",
   "f"
  ],
  [
   "S",
   "he"
  ],
  [
   "mor",
   "y"
  ],
  [
   " me",
   "mory"
  ],
  [
   "re",
   "ct"
  ],
  [
   "or",
   "rect"
  ],
  [
   "c",
   "orrect"
  ],
  [
   "is",
   "t"
  ],
  [
   "if",
   "ic"
  ],
  [
   "e",
   "c"
  ],
  [
   "ec",
   "ific"
  ],
  [
   " sp",
   "ecific"
  ],
  [
   " l",
   "ist"
  ],
  [
   " every",
   "thing"
  ],
  [
   " so",
   "on"
  ],
  [
   "good",
   "night"
  ],
  [
   "k",
   "l"
  ],
  [
   "j",
   "kl"
  ],
  [
   "gh",
   "jkl"
  ],
  [
   "f",
   "ghjkl"
  ],
  [
   "d",
   "fghjkl"
  ]
 ]
}